[PAD]
[UNK]
[CLS]
[SEP]
[MASK]
!
"
#
$
%
&
(
)
*
+
,
-
.
/
0
1
2
3
4
5
6
7
8
9
:
;
=
?
@
A
B
C
D
E
F
G
H
I
J
K
L
M
N
O
P
Q
R
S
T
U
V
W
X
Y
Z
\
^
_
`
a
b
c
d
e
f
g
h
i
j
k
l
m
n
o
p
q
r
s
t
u
v
w
x
y
z
©
ª
«
°
²
´
º
»
½
¾
À
Á
Â
Ã
Ç
È
É
Ê
Ë
Í
Ó
Ú
à
á
â
ã
ä
ç
è
é
ê
í
ï
ñ
ó
ô
õ
ö
ù
ú
ü
ā
Ō
ō
ő
ย
ร
อ
่
ẽ
–
—
‘
’
“
”
…
€
™
♪
♫
##n
##d
##e
##r
##ç
##o
##s
##l
##a
##u
##t
##i
##m
##p
##c
##h
##ã
##v
##z
##y
##b
##j
##á
##f
##g
##k
##ú
##x
##0
##3
##é
##6
##5
##q
##ó
##í
##2
##õ
##â
##M
##R
##I
##4
##S
##H
##C
##w
##B
##N
##A
##P
##O
##ê
##E
##D
##T
##1
##K
##8
##9
##G
##L
##V
##ô
##Y
##ª
##º
##7
##U
##Q
##ő
##J
##F
##ō
##ü
##è
##X
##ẽ
##W
##ñ
##ù
##Z
##ร
##ö
##ä
##à
##Ê
##ï
##ย
##Ã
##ā
##er
##os
th
##es
##en
##ar
qu
en
##as
##in
##or
##an
##on
##at
##is
the
##ot
##ou
##al
de
##om
##nd
##em
##it
##ent
##am
##st
##ad
##ic
to
##ão
##re
que
ap
##ing
quot
in
##ed
##el
apos
of
##id
com
##ec
um
and
##ro
##ut
##ra
##il
##et
##ia
##im
##ol
that
se
is
##ion
##le
par
do
##iv
est
##ir
##ig
you
re
wh
##qu
##av
as
##so
##ur
al
it
con
##ac
##od
we
##ant
##ow
##se
##ly
##ul
##ere
for
an
##ente
para
uma
ma
Th
em
##um
on
##est
me
##ter
mu
##ist
##ri
##and
ex
And
be
##un
pro
##ay
##ver
##ção
this
no
não
st
ac
##if
so
##ess
es
##ld
##pl
at
os
##ade
##iz
da
##ab
por
##au
##emos
nos
ab
pr
##ce
was
##op
##amos
##ci
##ke
ch
##ag
hav
##her
##ado
su
per
##az
are
##oc
##ith
##ort
##ap
can
ver
with
have
##ally
##ito
im
##to
tr
go
pod
##ch
ne
##ei
##out
como
##ation
##ica
##ens
out
mais
##us
So
##inh
##ect
##end
des
##gu
they
na
##ud
##ust
not
##ve
pe
##ear
##ht
##ould
##ost
what
##ada
ser
wor
The
us
##ões
tod
##esso
##og
##ação
##ill
##ind
fr
or
about
faz
##po
ve
sh
##ont
som
li
my
##ers
ar
all
It
comp
##ando
##idade
el
##per
##ive
##tu
##ight
##ell
##nt
##ore
cont
##ause
co
pesso
##vel
ter
lo
##que
##ho
dis
ag
##ento
##mos
pre
part
##ity
##sto
##amente
there
##ople
res
##de
##orm
We
##ok
eu
##mente
##ate
dif
our
muito
ou
##cia
people
like
But
one
Mas
##ass
##ast
tem
##gh
##ados
from
##ém
##all
##inha
##ese
isso
car
##bl
gr
##co
##ais
le
pl
am
pessoas
he
##oss
##ans
são
ent
##ante
just
alg
##uc
kn
##ies
##br
Est
bec
##00
imp
mas
but
##ge
##ink
fazer
##ós
tra
##ça
##ain
##art
##ên
##ma
rec
inter
dos
num
##oi
##ida
##ores
##hing
sp
##ora
know
##ido
real
cois
está
##ai
by
cl
them
##ber
fe
man
##mo
ao
##ico
##ound
un
mes
##one
if
##bre
these
see
more
##ções
##pr
aqu
##io
##ava
get
think
##ine
up
isto
##ime
Wh
thing
very
noss
##fer
##ip
ev
esc
had
year
##ong
ever
##bal
In
##ria
sa
their
when
##anto
sobre
##ndo
would
esp
##ilh
your
some
going
fac
##our
inf
were
col
how
##ign
das
##ov
##ência
##ose
##olog
di
Qu
ad
come
##ack
##ure
##ame
##ês
pel
##ich
hum
##ous
##ta
anos
quando
want
foi
because
##ide
##ard
##ence
##ial
look
porque
##cis
##ther
who
work
Eu
sem
##ib
era
Não
tal
vez
##ros
##ca
way
##amb
##ase
cri
##wn
ob
time
##ram
really
##ult
ele
##ions
##ru
has
ta
This
##elh
every
##ome
##ord
##entes
world
há
diz
ass
##blem
##ite
##orn
other
problem
##reat
You
quer
##enas
inc
could
nós
actu
sim
##eg
human
Por
##aram
don
fal
##ambém
mat
Ent
##red
te
##ough
most
##ras
esta
rel
here
##iver
cer
##ior
##ece
imag
##ond
##ild
which
Então
mundo
pass
Now
They
este
tec
##he
will
minha
todos
##aus
##pt
cor
ide
##nde
then
did
##king
##th
##ace
##adas
af
##har
cr
cons
##ach
##int
where
sab
##dade
##ical
##rio
actually
##itt
now
##ct
##ents
import
meu
need
po
pens
trans
estão
into
##lo
##app
##ie
também
dest
br
trabal
mesmo
As
##êm
##fic
##ely
years
vos
resp
##cul
ess
than
##udo
temos
mod
qual
inv
int
pol
start
coisas
tw
##age
med
soci
##segu
##itos
Se
##ix
somet
been
##ina
##und
make
##ons
##eiro
Ap
##pre
enc
any
forma
##irst
##imento
##imos
##rar
poss
##ço
bu
happ
##nolog
chan
##ice
say
##ámos
eles
##ry
aqui
##iam
hist
##ple
mar
##mer
##ível
gen
cas
ec
poder
things
exper
quest
##pois
##ree
liv
##ades
also
##les
apenas
##unt
ind
those
##almente
much
##ife
##ory
prim
precis
sol
sent
pode
right
##ghter
op
nov
call
over
vida
grand
##ios
##ount
sur
acont
new
differ
two
bo
Al
sua
##able
und
##ific
##act
onde
##ob
consegu
podem
something
##duc
##ank
difer
##ura
##ha
dia
##ís
ins
inst
first
##erg
##eira
day
cap
voc
##ment
Ch
##ças
##aughter
têm
##ança
##istem
even
tempo
inform
That
bl
What
##way
melh
##icos
podemos
Laughter
pers
##entar
##sel
ir
##isos
##ecer
proc
##uz
##ittle
back
bet
lot
under
##ep
cam
segu
##ias
mud
##ue
algum
##quer
only
ph
Com
got
const
little
coisa
##vol
fun
Risos
fl
##cent
verdade
nossa
fam
##ativ
life
##ated
art
dizer
nas
men
##ual
##ric
De
começ
##be
vol
##vi
até
long
ol
##ional
##par
##amento
ext
##plause
20
torn
##ater
cham
Applause
Apl
##entos
take
his
##other
dec
##ular
##aix
##ausos
many
##je
##ations
##ita
gu
depois
Aplausos
her
##ks
seu
estava
conf
##tern
agora
##ador
pró
##ody
mom
Os
pou
different
There
cé
kind
ant
##rop
said
met
tudo
##ful
milh
tinha
##ares
numa
##rav
##antes
sy
sign
algo
histó
thr
##ele
##brig
##ject
##inda
##ance
expl
##ne
##át
##ata
dev
bem
##ff
econ
red
##enc
nosso
He
##icas
cent
does
ti
##ista
entre
Isto
##gan
sec
##itas
dire
pal
##ght
##idos
encont
nest
##iss
experi
##ian
dem
##agem
##ender
vi
maior
só
##port
##veis
let
melhor
##pos
apr
assim
vocês
##ações
##are
##ít
##ran
sc
form
vis
##ether
good
fact
pequ
##urn
fin
##ás
compl
she
##pres
prof
dist
##igo
19
Is
##avam
through
around
##ower
plan
tell
reg
##plo
##oje
use
##uns
show
pa
##ting
##cion
Thank
##rias
Pod
rem
##és
comm
pat
##íci
##earn
##form
##ples
tão
##enh
nat
10
##ish
down
fut
percent
##idades
##lt
##ân
##ivers
No
##ug
escol
learn
parte
já
St
prot
falar
##fr
sub
same
wr
##enho
##ick
000
##xt
comput
Well
min
prov
##cho
##ave
count
ainda
happen
grande
##ja
disse
cada
##bro
##stem
cur
##ição
estamos
##ys
sal
##ors
##ín
tech
##itu
aut
##ital
##adores
find
##ress
##ger
energ
pelo
mil
##ible
exem
##ary
##ew
##arem
pequen
If
dur
##erv
ll
la
##íd
##aria
being
bas
realmente
pela
person
##ário
vezes
##ought
fic
##idas
made
val
##ima
bel
##hec
##íamos
perg
econom
bra
hel
##ren
Par
Un
sm
aos
##ável
partic
exam
Ag
big
##row
##ture
tipo
##vern
id
loc
##ak
own
##rios
lev
todo
##cer
##igh
##ulher
estas
sistem
##cil
called
may
##self
##ire
exist
##tura
##za
put
today
du
system
av
##oll
##ira
país
ela
##ph
##rib
equ
pres
pos
qualquer
build
##thing
todas
Há
hoje
Quando
talk
##ient
##imes
então
three
contin
trabalho
mov
##jud
##ft
##illion
Port
mulher
why
dar
prog
hom
##ating
exp
stud
great
##ics
design
fil
##la
well
fiz
##lex
change
child
200
hear
seus
problema
prod
lá
##ying
govern
##ural
glo
pouco
pen
##ates
##ities
dois
feel
again
exemplo
ro
estes
rep
outros
Em
##ela
perce
##fore
ideia
didn
Como
##vez
Agora
##unca
act
sempre
pensar
história
deix
##stand
estar
##chool
##te
end
##ize
ret
##ile
bar
##éd
##ivo
##ng
technolog
complet
##istas
nossos
funcion
##anças
milhões
Portanto
ajud
fa
##ty
##itar
anim
after
contro
Obrig
##kes
##esse
vir
should
Mu
mim
wom
help
started
vai
##we
mal
outra
understand
doing
educ
acontece
Porque
constru
def
toda
cour
turn
##ict
model
##iliz
sci
às
idea
desco
pop
##ole
ask
brain
##ução
##gether
exc
power
simples
menos
test
##eram
tecnolog
pu
famil
might
off
93
##hes
better
still
##body
organ
91
him
cond
invest
bi
mean
alguns
##gn
##ifica
espec
social
##ider
never
Bem
##ise
##ón
##ental
desc
Esta
acc
##ruc
together
Ele
##ically
muitas
school
##ves
cheg
##imo
ano
Este
palav
How
creat
old
Na
três
Es
##enci
##ather
##ands
set
lar
##úmer
##ars
point
##ition
##inar
sistema
ke
last
comun
its
esse
esper
example
global
before
result
important
perm
interest
##ood
##uro
##fe
nossas
sin
##jet
eng
##old
##cias
##press
mem
duas
far
interess
question
found
few
facto
##ock
went
##ól
neg
lado
##emente
cére
er
muitos
Tod
bom
bit
dr
voss
##ings
lhe
outro
clar
##ness
belie
##up
story
course
##qui
importante
##anc
outras
nunca
##ility
super
desen
##ven
##gua
viol
durante
##ero
thought
##ution
suas
Intern
vo
##vir
essa
each
mor
##anh
conhec
dig
commun
sou
númer
rest
##rat
##iva
cre
lig
norm
##rem
##bo
usar
casa
program
publ
amb
vamos
##vers
diferentes
nec
##iu
##osta
lim
##pe
##lear
##lu
##read
another
able
atrav
suc
ped
rap
sl
mont
fund
decid
##esc
##ists
pergunt
ger
tenho
too
##ingu
##endo
##riend
When
##ds
##alth
mo
##ino
##ilo
##ana
##ogra
##ways
data
rece
continu
give
antes
prop
criar
##als
spec
Um
kid
vou
##ement
##quanto
used
att
place
##erra
Internet
fu
##iar
##ork
##velop
olh
caus
##ets
##abor
últ
lug
##ures
next
mic
algumas
quem
##icamente
primeira
Pr
##iente
##ious
##ited
sé
complex
informação
sex
indiv
necess
tentar
##asse
##guém
ris
read
fot
estud
##ências
seja
mater
primeiro
##ween
##inho
high
##ús
##ença
pessoa
ago
spe
gener
mulheres
came
##iros
neste
100
friend
##gin
##angu
##igos
elect
chang
Nós
ún
crianças
cert
between
##ang
estou
ens
desenvol
sel
bus
##aço
minut
cérebro
hor
##ath
del
conn
##ah
cir
sort
##ét
##iras
women
Eles
##ense
meus
mot
##frica
##anç
cal
##af
##iência
##ized
develop
##elmente
obs
process
momento
15
talvez
quero
small
technology
pra
##jo
##íveis
##ward
information
difí
##ários
##iter
Amer
gra
hard
##íl
##rac
##ilidade
conv
local
tecnologia
nem
always
bot
less
mã
raz
trad
##onder
fi
ref
particular
For
empres
Bec
eram
##ária
beh
prin
olhar
My
dados
il
##óm
project
cerca
transform
planet
Because
30
vão
fel
Let
Ok
hand
live
At
home
através
junt
pap
##ism
univer
acontecer
dent
Af
##ene
love
volta
extra
mort
dias
próp
Ar
##ços
care
Temos
cul
estr
alguém
means
doesn
profess
control
méd
50
##ved
grow
oc
##iram
wanted
Uma
mesma
##culo
Isso
children
tot
##pend
compan
cost
##ts
##armos
cab
det
##ican
##uras
acab
nada
##oup
away
##ning
##ale
##ope
disso
significa
reas
##cept
elas
aprend
country
public
Ac
##air
##car
##gest
##ática
tri
##ato
##ember
contra
ed
##ied
##onto
##its
diferente
##ech
cell
done
##oney
water
alguma
##ância
quant
comb
compre
acr
água
##jam
##ED
##onst
sup
term
play
foram
polít
cou
##ern
popul
Foi
four
##ten
##tar
##iness
##atch
##ters
abs
Obrigado
CA
ut
##oso
produc
acred
che
##ected
everything
##selves
famíl
second
light
quase
app
enquanto
ans
health
trabalhar
novo
via
##der
##ail
future
Go
difícil
gost
million
pret
encontrar
lhes
##icar
space
looking
##ições
disc
pot
believe
bast
fre
pain
neur
coll
coloc
dentro
sk
viv
##ines
##ismo
##ull
mudar
começar
ali
dess
##ories
baix
fá
##ex
##ização
##inham
number
consider
precisamos
Am
los
##ér
conc
evol
Do
fas
##ício
cust
palavras
Para
##enta
apar
espaço
book
futuro
pes
seg
open
create
##ral
##ries
número
base
##ua
##óg
##ational
##inheiro
energia
claro
Tal
##rit
##áveis
##én
exact
espé
##vamos
##ins
lugar
rob
One
TED
eff
tom
##bab
##eles
Ex
best
dinheiro
giv
##ety
uns
cu
sound
socied
All
son
sido
##hip
gru
realidade
phys
times
##osa
using
become
espéci
Vamos
cin
##entemente
##ble
##inhas
Europ
mostrar
pi
##ever
##ror
fazem
partilh
descobr
ear
estavam
univers
situ
ví
##ião
stop
left
##ices
somos
individ
Aqui
má
##iro
##uma
desta
money
##amentos
repres
##ulas
maybe
She
luz
##line
##wh
##ret
sei
##ection
Here
sil
##pa
liber
answ
without
##ideo
resposta
fer
##mag
##gar
enorm
seria
Why
natural
An
##inal
cho
sens
##ula
##ogo
class
material
run
##iting
working
mark
moment
comes
convers
fora
##unto
##indo
trabalh
##izar
maneira
lives
próx
New
mant
net
pont
##led
arm
saber
##iew
##ató
whole
emb
mus
begin
feito
São
##aut
meio
lead
thinking
escre
sabemos
201
eas
food
##ivos
trying
essas
questão
five
##alf
##adr
##aces
group
liter
took
##isto
port
bastante
##atro
talking
hou
##ál
##úde
altura
relig
cél
##ped
probab
países
room
##úsica
body
##úbl
These
teac
polit
nova
mer
##ner
##éc
##ndia
making
priv
##ortun
experiência
energy
##ala
told
days
nature
obrig
democ
interesting
kids
dim
oper
##gs
wee
such
possível
across
En
aum
##very
cient
mind
getting
add
corr
month
plant
family
##ruct
doll
quanto
##ites
young
revol
head
ur
level
Sab
dól
foc
side
sabem
respons
mass
try
resol
incr
escola
especial
Sim
ponto
sing
tinham
##ier
##most
##vis
makes
##ativa
happened
gl
##pect
##go
##âm
##ude
allow
China
##ron
##semos
seem
desde
cidade
case
gre
##rás
##avor
orig
##allen
certo
modo
film
##cum
##bs
##anha
##omet
medic
science
mol
tar
saúde
deste
##ím
apl
vossa
razão
Con
filh
war
wal
##bon
keep
pic
enough
##avelmente
jov
job
past
decis
##arth
aprender
Muito
##inguém
desenvolv
reason
nuc
tiv
##icação
imagin
On
Vou
bre
públ
rad
insp
mult
##osp
projet
stand
ach
extrem
nesta
##inas
##reas
##imentos
ways
phot
##ences
pretty
Re
si
##ues
##ari
##olut
parece
saw
pequeno
##ately
acer
signific
penso
##irl
direct
Le
##man
##anho
almost
else
object
matter
##uzir
maioria
##urs
imagem
corpo
normal
self
observ
effect
ey
ps
viver
##ative
deles
countries
ident
princi
hour
sense
str
havia
adv
vosso
friends
Can
nenh
##ót
##eias
myself
##uck
problemas
capac
fundam
business
half
quatro
emp
intern
pequena
building
mãe
40
langu
often
##acter
amaz
Cl
later
pag
##ake
##elho
acho
simple
Ass
scient
25
##ream
##ilt
utiliz
##where
answer
fant
gente
##less
thous
challen
move
família
dólares
##ano
passado
consci
conseguir
asked
individual
div
##íst
quite
##omos
##aps
trat
carbon
face
Podem
ficar
wonder
##fect
aquilo
consum
bad
nível
tornar
construir
lem
##cial
inside
##ograf
Fr
##uff
##ert
##ently
Quer
indust
##ready
Oh
##ially
Jo
Or
ty
tent
ult
bring
possib
happens
caso
experience
equip
organiz
interessante
fim
##idd
diss
adm
Podemos
dom
favor
##lus
##ane
##ogn
##ciais
fez
absolut
aí
cult
ep
fig
pud
unt
##cos
##plic
sust
humanos
grandes
18
Ou
##da
##rad
##bers
##ily
perceber
Era
aud
list
dise
imagine
experim
homem
netw
probably
Imag
##deo
incred
Depois
longo
wrong
ajudar
segur
Ela
watch
##elo
##ola
anal
wasn
remember
##árias
##osse
##ote
##ecei
beaut
words
capaz
personal
blo
##orest
char
goes
##undred
city
hosp
tend
##ces
##ást
top
must
corre
única
las
##este
disp
amigos
works
modern
homens
acerca
fís
##enso
coming
imm
front
fazemos
leg
clim
aconteceu
defin
amazing
air
civ
##rado
##ken
##ecem
already
##acion
será
humano
living
existe
Todos
billion
##ique
##ention
##els
docum
having
resear
anything
computer
dollars
hope
##ub
##osto
##iais
##ode
age
looked
histórias
simplesmente
permit
bat
hundred
##ually
##ones
deb
##elas
press
Des
vac
##edi
##orth
##ordin
Mar
##viron
community
labor
yet
##va
##cio
desaf
processo
sala
nuclear
Assim
vê
funciona
digital
12
rá
##úd
environ
##ury
frente
produt
Goog
Voc
apro
seen
online
sure
naqu
possible
picture
Pro
tre
##ments
##enças
##ots
##omes
math
learned
education
sociedade
##ead
##ama
Está
micro
Every
Nov
Tw
ciência
pais
vemos
##por
##enção
while
existem
##uge
##fico
##ware
stuff
##ously
both
fácil
mach
vidas
##ológ
##ird
atrás
##uss
queremos
news
Google
grav
girl
##ris
quis
##eta
vers
comport
became
queria
boa
visual
Obrigada
estrut
exactly
espécie
cinco
isn
prote
night
##ientes
quais
true
preoc
biolog
teacher
clear
passe
##res
deter
##ete
podia
partir
someone
obvi
transport
society
kill
tel
express
##eix
disco
recon
explor
until
Earth
##has
##ara
##quis
pay
pai
tir
##iões
##bi
##ident
estado
##unta
nothing
contar
mudança
completamente
células
Pe
free
fosse
hab
##pet
##get
##NA
##iga
map
prime
Estamos
meses
intel
##preend
questions
novas
single
##ffic
##ats
Quero
segund
represent
Africa
mental
ninguém
##cess
##hamos
tool
##eld
esses
black
caminho
rede
students
language
Pre
tip
##icion
estran
knew
pelos
oportun
##ency
##ollow
extraordin
60
chegar
grupo
dir
mon
mess
##side
##ature
##itut
stories
ouvir
formas
posso
comunidade
cells
cuid
inde
tanto
video
##eça
##unch
daqu
medo
history
final
completely
behav
bene
ign
##ga
##osos
though
depend
##iful
##oca
order
carro
matem
imagens
causa
months
mother
oce
padr
##ides
##rag
##ape
built
says
preciso
melhores
arte
confi
law
United
animal
changed
sat
alter
##acional
trust
capital
chamado
heard
fui
horas
environment
Per
miss
África
##imas
whether
conseguimos
milhares
activ
market
obrigado
17
##ping
once
esqu
flu
##óp
share
prepar
passar
sentido
investig
certain
product
Também
cop
depress
##ecto
##etr
conj
fazê
cresc
##ribu
Europe
research
fix
tam
tele
##ici
muita
##agens
others
poderia
particip
El
follow
minhas
within
cres
computador
pergunta
##book
frequ
merc
filhos
six
treat
##iores
##ator
terror
places
destas
learning
valor
government
large
Okay
Já
Ser
cort
##ór
##arr
##atamente
noite
##essem
objet
segundo
provavelmente
empresas
universe
hospital
Terra
hon
jo
##ev
iss
step
compet
impro
media
##ínhamos
decided
universo
behavior
90
##for
diffic
entire
conseguem
encontr
enorme
difficult
##ark
##ared
sequ
##istic
stay
sufic
reality
aquele
looks
princip
Just
##bol
##ined
comecei
##ilar
##leg
mens
sav
##gum
##quei
perd
termos
taking
company
baixo
ferram
Tr
dan
música
##rei
prom
##culos
York
efic
##ãos
comida
##eter
alt
pris
impl
livro
against
deixar
tarde
projeto
bro
fear
deg
inn
abr
querem
saying
modelo
máqu
beautiful
80
hold
mão
sw
##inc
##orr
##atos
itself
##ages
##ush
destes
ideias
palavra
##iddle
cidades
wa
##ply
##cle
##UA
##anas
##acto
carros
gets
event
genes
você
economia
voz
success
papel
Talvez
Só
view
##den
##eah
##oria
##raz
doença
compr
ouv
everybody
invent
##ney
connect
couple
EUA
Ol
bab
##ling
##outh
Que
##atório
Ad
Some
fo
lut
opt
##íp
##idem
dese
pred
ourselves
takes
##ícios
basically
American
dimens
11
name
##cin
##viv
##ód
envol
##ases
problems
couldn
procur
music
walk
Vocês
DNA
To
##idente
conce
##ried
seguir
volt
confl
explain
States
fizemos
olhos
Precis
tamanho
Tem
igu
amer
record
everyone
fotograf
ru
##erem
deal
##ential
início
##urg
##ático
fail
since
compreender
easy
intelig
nome
##ração
##rie
impress
guerra
study
turns
rapid
speak
vídeo
nerv
##uce
dele
mag
word
##illions
##rug
relations
seguint
voltar
kinds
century
ambiente
early
cut
##vent
ing
##etic
meas
##essa
cancer
influ
certa
##portun
199
ajuda
##ructure
planeta
focus
determ
jour
##ps
sociais
serv
opportun
lots
Ess
species
electric
próprio
AD
Man
tiver
##gem
##xim
##itor
##itive
inov
Then
cars
solar
sentir
powerful
edif
ráp
Our
Tenho
ast
gar
##cas
dela
##quê
alun
##bros
week
disease
Nova
tipos
70
huge
##ted
emerg
soft
elem
traz
themselves
##ction
apres
road
felt
pesquis
segurança
cima
tu
##enn
##ony
spend
clos
aquela
relação
surpr
created
##feito
negó
##ograph
fantást
Face
cities
size
##iado
##atic
separ
state
aqueles
aff
complic
autom
based
violência
companies
política
piece
descobrir
16
Sh
##eiras
além
##eio
contr
colle
image
##ativo
governo
Prim
urb
hours
thousands
figure
13
fem
lon
low
vot
##ience
##oud
dever
##itect
aper
##rod
##anda
##apar
##pria
##ished
engine
preocup
discover
ADN
dream
line
ment
##hecer
##bra
##úst
##adora
##ules
##aud
criança
humana
teve
ideas
própria
económ
pattern
present
heart
##ançar
total
desenvolvimento
conjunto
innov
Mus
dá
land
lín
tínhamos
wall
##ton
##yl
##avilh
ones
stre
Estou
worked
chamada
redes
happening
calcul
feliz
Be
Eng
eight
tant
##ery
quick
offic
##sei
##ization
canc
near
pract
epidem
wind
##aw
color
dizem
##encial
support
jovens
mob
##entas
interact
começou
visão
levar
access
acredit
mos
##haps
##asso
##isso
##oma
##ques
along
##culas
subst
século
America
empresa
fundamental
relationship
cade
déc
hip
lid
lost
##not
##ike
##ze
##ávamos
##ória
##rea
haver
##brar
ador
instead
delas
molec
father
##uais
##esar
envi
leave
needs
animais
cultura
Ora
bal
gave
lab
##ges
empre
##iste
guy
disto
value
##teza
woman
appro
listen
blood
ignor
Gr
fab
tive
##ients
comer
maj
ace
agric
medida
farm
full
tin
##ged
##era
##erto
deep
##omp
##amo
##rael
amount
##ption
sometimes
locais
educação
conhecimento
últimos
população
Joh
confiança
Out
##land
##ash
seis
Estados
sabia
needed
integ
##aixo
scale
key
sucesso
longe
Pens
cle
mi
##room
##imin
acord
diferença
longer
physical
beginning
escrever
resolver
eyes
dra
##ither
maiores
##ung
outside
arch
sabe
maravilh
surpreend
professores
hot
##atura
##ume
Estas
começa
difference
insect
demonst
bomb
minutos
behind
Ve
cru
##éria
death
asso
##abb
serem
least
diagn
florest
pequenos
violence
capacidade
Facebook
Cal
ca
hy
ox
##osas
parents
doct
meet
##inhos
feed
##elhos
incl
imaginar
##ativas
economic
Unidos
communic
Not
sed
##rito
##jar
##ermos
##reen
##ively
##uring
##orte
somebody
##ource
##itting
invis
perspect
salv
dark
vossos
situação
##ledge
Ge
hora
##con
##aro
##irm
##odo
cannot
numbers
known
team
respon
único
field
cabeça
inspir
oportunidade
Primeiro
dou
et
sít
vem
##rus
##çam
##arm
##ining
##embro
##ames
estre
##ateg
travel
coleg
pelas
semana
torna
##ído
economy
fascin
house
challenge
segunda
GP
Hoje
idade
rather
##aking
##inem
##reg
comigo
##iving
##acy
mund
imposs
indúst
##ificar
bloc
##aixão
centenas
Univers
network
major
Penso
cit
post
won
##rum
atenção
sug
perto
conte
institu
números
seguinte
Col
Most
OK
ten
third
##anos
##anhar
##rog
alim
Estes
impact
escala
technologies
ill
incrível
break
ia
ran
send
##mas
##inu
##abilidade
##ustr
entanto
tax
simply
respond
happy
tornou
##ícias
tecnologias
praz
machine
May
Tudo
bir
ge
vari
##ualmente
##ced
##eres
##rap
parec
alc
##gue
arran
conta
sair
yourself
demas
profund
##ribut
pensei
morr
population
colocar
benef
miúd
Deix
Ne
rais
área
##ea
##face
##xo
deve
ating
##ability
compar
prefer
temper
realized
livros
campo
Deus
palest
##posed
path
virtu
partilhar
público
John
Har
divers
ár
##bor
##itivo
estiver
força
org
short
##hood
obter
risk
neurón
GPS
pac
sangu
##day
esquer
##ostas
##ains
evid
obt
text
irm
attack
culture
estrutura
matemática
Precisamos
14
aw
ban
tenh
vista
##rut
##osco
ded
##itions
apoi
##ulo
beb
sus
##apt
##assem
taken
similar
curr
given
portanto
nenhum
cancro
Cont
bol
born
gas
comum
began
arqu
inclu
importantes
polic
precisam
phone
finally
systems
estudantes
minutes
juntos
##echan
tools
rapidamente
Lo
foss
pô
sum
##lish
##ives
##igas
alone
emot
tru
resist
ground
recogn
knowledge
seeing
Israel
expect
animals
pontos
##écn
strong
equipa
crescimento
500
Ao
cria
eat
linha
lingu
tens
##inist
##ality
##emat
##ivelmente
repar
servi
terra
cart
poor
write
special
refl
manter
experiment
ferramentas
Mo
cento
fall
vend
##ium
##vo
quar
##idge
umas
doenças
##ivas
chem
grad
amor
solução
camp
slow
##érica
books
incredible
Car
caix
middle
##omas
stat
close
assist
images
crit
novos
##fully
sistemas
turned
familiar
risco
circ
Imaginem
First
diver
fat
jorn
##ham
##uth
##eto
estim
##iramente
##igr
web
perform
##ensa
entrar
semanas
última
série
##wards
totalmente
teachers
alunos
aperce
pá
técn
apart
##aves
##ants
##sequ
stress
##cios
lik
estávamos
Qual
certeza
passa
rapar
continuar
bott
political
psy
comportamento
Ant
ler
##rada
##of
##uper
##jecto
##aring
após
##ivamente
estudo
fort
##ift
perfect
humans
bran
questões
precisa
experiências
during
movimento
controlo
voice
tried
american
opportunity
Don
Us
mis
mec
pick
##bri
##ract
##verage
##aught
terce
mesmos
Inst
box
common
feeling
resultado
natureza
Sp
West
fast
non
áreas
##round
##ícia
##arch
sob
##plos
semelh
pensamos
transm
descober
último
carbono
associ
Aqu
God
Sou
##50
##orque
seven
##vert
stran
abord
perhaps
verm
amigo
lived
smart
fizeram
quantidade
dessa
dessas
Europa
hundreds
mosqu
Je
hands
mente
rod
##ímos
quím
##iti
##eliz
##ilities
rev
acesso
##ibly
computadores
##ída
resultados
paper
collect
din
fight
oil
##na
##iot
requ
consequ
sud
usando
reconst
anyone
##ídu
filho
perguntar
perguntas
morte
green
industry
disseram
padrões
300
Ir
ball
mist
nisso
ok
rate
##anist
##oming
parar
começámos
guard
198
##ances
cientí
People
software
Who
líd
nav
várias
##óvel
##att
##itional
##irem
refer
white
##rial
neigh
dispos
##elhas
irá
sym
##ission
cirurg
##ética
viagem
Sabem
surpris
demasiado
Come
Iorque
Yeah
either
flo
mechan
vul
##hos
##adamente
##rab
estab
magn
cool
partes
elev
invol
##áticas
devido
basicamente
fundo
próprios
professor
terms
weeks
nenhuma
desafio
crescer
suficiente
máquina
pesquisa
Eg
India
iria
##sos
##ired
##ona
##isse
##ows
spread
realize
Quem
teach
relacion
blind
drive
growth
discuss
24
passo
ren
tro
##ny
##tion
##just
##fort
##orre
##omen
##aged
notícias
Estão
impacto
##ologia
milit
resto
absolutely
capazes
mensagem
fur
##over
##vem
##word
##inst
##itter
structure
opin
telling
##éssemos
América
seems
predict
tiny
indústria
Mais
nisto
pur
ra
##entially
##icul
estiv
forest
truth
##ources
solution
block
procura
começaram
finan
patients
escolas
expand
funcionar
developed
neurons
Music
English
Right
With
tum
var
##ging
##ering
##orld
##leo
repl
desapar
ord
##bres
possam
chama
finalmente
curios
autor
changes
Até
wonderful
mathemat
baby
urban
psych
Sem
Tom
Vo
aula
lay
millions
song
enfr
##itch
##idad
sever
sejam
pared
##urity
altern
exer
chip
parts
Chris
guys
indivídu
ensino
##racy
sounds
revolution
jovem
##ursos
typ
lidar
clean
neurónios
Brit
Co
Yes
boc
gast
pri
worth
##ler
##uf
sequer
##own
exatamente
seres
##onte
starting
boas
institut
##enced
direitos
understanding
interested
grupos
democra
cientistas
telem
Maybe
sangue
sudden
Hig
drop
gal
lou
vel
visto
##aços
quão
##oun
dead
##icações
password
consegue
constant
central
pequenas
popular
descre
aumentar
scientists
laboratório
telef
quickly
citiz
árv
By
bon
ple
squ
Índia
##fica
##oms
##ils
##ival
suf
suic
wouldn
destru
brought
direito
levant
Claro
type
dispon
civil
habit
message
honest
suggest
Música
cat
zero
##eties
reach
react
pessoal
card
##bras
pobre
intell
lugares
motiv
robô
danger
measure
approach
architect
veloc
Acho
Cent
gone
mut
ton
##ik
##oth
##eler
##izagem
algor
recently
thank
solve
melhorar
moving
schools
superf
cheap
leaders
climate
igual
contrário
draw
colegas
mundial
Higgs
Nunca
cogn
kil
nut
win
dez
##ecimento
forward
muse
ability
Estava
increas
actual
##eceu
consigo
pobres
pensam
buy
Alg
mudou
metade
explicar
secret
visit
##ploy
shows
Pode
avail
produz
esperança
ensin
desenvolver
After
Afric
próximo
independ
Será
journey
linguagem
Pa
Ph
TV
Tinha
Video
World
average
code
hig
lif
oito
rain
yes
##eu
##orks
##oto
revel
##terior
pros
teria
among
adult
everywhere
Chin
proteg
biggest
fotos
changing
mãos
robot
espécies
incredibly
mercado
língua
##elizmente
craz
ganh
hit
nar
site
source
##ein
##use
##IS
theory
soz
areas
sho
entend
entender
##rosc
teoria
##itten
devem
centro
protect
techn
ensinar
acabar
combin
houve
aproxim
fotografia
Ainda
Nos
cele
nessa
save
##ving
##áfico
##él
##esp
##ators
##ivity
email
prest
area
trata
whatever
##aste
continue
limit
growing
literally
sustain
principal
response
available
Hav
cidad
log
rua
sai
vict
##ove
##atas
##icl
asking
alto
##ulho
sofr
desp
argum
societies
devemos
wrote
leva
permite
médico
aprendizagem
sociedades
sustent
issue
Jap
fly
pull
sun
##ramos
##çar
##ui
##more
##vas
##itude
alta
##ump
ativ
##cient
recol
passion
cris
##ativos
subject
miles
perceb
Today
specific
custo
giving
fundament
cuidados
bottom
Cada
Ger
pint
petr
##cíp
##óleo
##íg
##ouch
##itais
andar
##rown
asp
##urso
forn
ang
terr
##ibility
##áticos
197
creating
princíp
famílias
molé
Imagine
Elas
discovered
petróleo
Gu
Sc
##ming
##ég
##ênt
enter
##alo
ofer
##urb
webs
trou
##usão
##inhar
##ology
brilh
starts
retir
Esc
moral
general
development
situation
choice
running
tivesse
física
primeiros
tenha
crazy
21
Bom
cód
role
sitting
##rast
##yond
##ister
##ema
apesar
report
##aco
##une
##ensão
peg
serious
fazia
aren
escrit
writing
computers
meaning
sexo
speed
compreend
gostaria
embora
groups
eye
street
superfíci
Cons
Rep
bil
câm
der
dam
effic
efeito
pior
rend
##lam
threat
##etros
##ived
##rif
stage
chave
trás
desper
##ostos
##erson
terem
trac
interior
adapt
##cula
gene
security
escolher
malária
consciência
Twitter
Cam
bed
cause
lanç
uso
##aur
##iça
##yn
##jamos
main
proper
accept
imedi
##ensive
desse
recursos
spent
Where
die
##ards
relações
pois
novamente
surviv
instrum
auto
levou
buildings
sete
deliver
reasons
próxima
cultural
produtos
fabric
Calif
palestra
caixa
likely
okay
democracia
bons
cand
fra
oh
##ube
##iber
##bios
##idão
doentes
soon
##ills
comprar
coz
entus
sobrev
espant
afast
respe
sold
blue
flow
##adoras
meth
device
regras
showed
faço
especially
perman
ligação
pedir
microsc
naquele
girls
envolv
apresent
instituições
Bo
Faz
Ind
Lond
Ob
Sol
South
digo
hol
nam
saud
tab
wish
##ker
##eria
##inos
##icks
##edom
##ims
trem
##veu
pegar
manh
relativ
coração
possamos
surg
instal
##iana
bigger
action
return
fair
geral
attention
ready
connected
motor
aprendi
democracy
original
Consegu
tirar
hipót
miúdos
suffer
higher
Big
Ed
az
jog
pov
##iação
search
concer
esfor
podiam
usam
caracter
amea
colabor
surface
guess
##iano
##aref
produce
descobri
sexual
materiais
developing
razões
acredito
Enquanto
networks
Deixem
esquerda
pôr
several
Chinese
superfície
pig
##ámo
##raf
reun
concent
##uls
beyond
stra
##izing
loved
##astic
espal
##head
patient
aval
posição
produção
repente
descon
programa
convenc
médicos
sonho
conversa
scientific
audience
civiliz
##icians
colleag
includ
sítio
jornal
further
Even
iP
sit
vill
vít
##ring
##lig
##iant
##ério
##eno
##ouse
##rease
##ingly
##utor
##ilidades
isol
reb
##ript
ata
##ago
perigos
compon
companh
becomes
recuper
adol
conseguia
finding
##encialmente
detect
tomar
diminu
optim
procurar
institutions
Ha
Neste
dor
mac
nice
rules
##uções
##osso
##ena
##eces
##ilos
##ires
confer
##oph
compass
knows
transfer
chamamos
diret
repet
errado
rapaz
gives
liberdade
correr
revolução
especialmente
determin
edifícios
fantástico
etc
líderes
velocidade
Alguns
manhã
bacter
ced
fica
nine
##back
##óveis
##ener
##itmo
##etro
parecer
estat
mapa
interv
transpar
responder
volunt
remark
exemplos
progress
modelos
sinal
próprias
média
descobrimos
thousand
domin
##ológica
killed
patterns
entusias
adolesc
3D
Bl
Ira
Rec
bord
ceg
nesse
rot
sch
vós
##rg
deta
atmos
##izado
##ocar
neuro
veem
cook
ampl
safe
assust
pensem
possa
poderá
artific
metros
##issão
movement
receb
choose
##ruction
##ística
extraordinary
negócio
tenham
neighbor
Bang
Fran
norte
sell
wife
##do
##ypt
##gth
##ked
##erve
reform
concept
##entei
emoc
meant
shared
grat
adop
assunto
respostas
distribu
families
foto
generation
classroom
photograph
pagar
microb
foot
innovation
Ang
Einst
Gost
Pal
cy
jud
mét
nan
pict
ép
##nel
##hic
##gos
ther
engan
##itation
##idores
aspet
##ify
vejo
assum
qualidade
histor
center
finance
showing
ficam
putting
older
geração
propor
traditional
occ
painting
Enc
achie
desejo
Essa
rápido
vulner
prior
Einstein
pictures
Are
Somet
dram
fol
rid
senh
touch
##lês
##me
##put
##cr
##hor
##rew
##ecção
##etas
sea
##ley
##uros
force
forte
porquê
partí
carre
entrop
training
died
##elha
crise
casos
screen
plano
presente
reput
descri
account
largest
comunidades
comunicação
Two
divert
código
fire
gig
gosto
led
nout
pan
taref
##rig
##work
##itamente
door
mau
##umb
##esta
star
pert
perc
perí
##och
unf
Porquê
mostra
rele
cross
transl
casas
surge
produzir
teste
necessário
estrada
potential
vivem
faster
##énio
Existem
célula
massa
##visão
grew
aplic
obviously
eventually
Pensem
floresta
perspective
birth
crisis
Dur
Mes
Te
Was
dú
jan
veio
ót
##ners
##ró
##las
##yt
##by
##itam
topo
porta
chec
##arte
feita
escr
##orning
humanidade
crít
brin
anymore
chance
##uzz
distância
escolha
written
##rible
expans
2008
exciting
##ónia
results
communities
estudar
transformar
combust
coun
custos
incrivelmente
origin
filme
Look
truly
celebr
Dr
EM
Hum
bic
ful
rock
san
tiss
##nal
##dio
##lar
##ultura
ste
abaixo
prost
desenh
cara
aquelas
affect
quality
introd
irão
Parece
moved
designed
##édio
Todas
receber
minute
Amaz
medicine
decision
tivemos
industrial
electricity
afford
substitu
CR
East
Fin
Med
Nob
Of
Têm
duma
lat
mine
rou
varia
##rico
##hone
deu
towards
applic
##irit
aspect
##ulg
projecto
haven
##ellow
prev
resources
falta
medical
acontec
instant
verdadeira
examples
avanç
student
designers
larger
##feitos
costum
evolution
vírus
favorite
conflict
inovação
agricult
evidence
mosquitos
African
Apr
Br
City
Pl
bás
categ
late
mand
ond
pil
pun
##ule
##iqu
##ford
##érias
##ânt
##eren
##itivos
##ster
##iced
##eless
##imp
strug
##izada
##oper
perf
ship
recentemente
unique
marca
Paris
talked
excel
fuel
totally
politics
individuals
ultrap
analis
vêem
relationships
alimentar
strugg
400
Arab
Fiz
Oc
Sec
frac
lei
link
morning
pin
sint
taught
##iet
##imate
##odies
##izados
aband
perder
notice
preço
amost
somewhere
adicion
matéria
##ioso
boy
Park
models
brains
##ificação
creative
espera
estudos
particularly
desses
conclus
##paign
libert
materials
conversation
effective
psic
físico
immedi
document
issues
negócios
integr
acordo
prazo
Fl
bair
cá
drug
game
pus
sle
##sia
##SA
##osh
##esper
quad
##ince
##isf
rever
Those
sof
abelhas
##aging
##guei
maneiras
relev
poll
indic
regul
provide
ficou
governos
superior
##iedade
freedom
sensação
próximos
teaching
debate
objetivo
wait
edifício
tumor
suddenly
intellig
época
Durante
Char
Nem
Nature
Will
fis
flex
km
sect
vivo
vários
##ians
##vida
##eness
quadr
##icial
ann
peace
worse
shape
arr
compaixão
contex
cover
##stood
##ained
mesmas
tecido
brand
mudanças
##áss
launch
barre
virus
malaria
cérebros
restaur
fiquei
supposed
políticos
2010
literalmente
allowed
##ísticas
estranho
marketing
investigação
abrir
successful
mobile
cadeia
doctor
salvar
context
reconstru
Aust
cant
cere
ice
jogo
lic
national
push
roll
vêm
##rou
##resso
##med
##vão
##áx
##0s
##enhar
##enomen
##icidade
##utions
paral
##ivemos
employ
##ceis
##ches
serão
gráfico
amar
interpre
saf
facil
infin
##rugs
afric
destro
respect
equival
position
deixem
conduzir
esperar
erro
graph
detal
acreditar
evolução
physics
naquela
frequentemente
eficaz
conceito
inglês
Many
económico
virtual
serviços
raparigas
abordagem
ultrapass
Ori
Pol
San
lower
mam
pir
page
rand
sac
##tle
##ório
##íb
##eny
##oro
##rees
##eth
rein
anál
##umin
##verty
atra
##ably
podíamos
##guas
##bert
wants
conserv
importa
poverty
intro
capt
function
começam
direc
194
##gery
basic
Esper
driving
collabor
aparecer
conscious
absolutamente
correct
produto
biology
prison
complicated
década
policy
quarto
sobreviver
method
Iran
bur
fomos
##rã
##rist
##til
##come
##ask
##ota
offer
parecem
doente
whe
conhecer
onto
except
traffic
feet
feitos
saí
cold
##ardo
passou
##ficos
inteiro
direita
construção
mover
Arch
potencial
pieces
Any
ruas
trazer
Vejam
transmit
pobreza
architecture
candid
compassion
artificial
abandon
Hol
Hist
Posso
Ter
Ver
cred
gest
hop
hair
mês
nu
rich
vimos
##gon
##ky
quil
envel
##onia
##alidade
dep
##adem
print
suger
peri
desem
##vey
ouvi
becoming
sobreviv
increase
corpor
police
ecrã
poderiam
sentimento
campaign
nasc
##ânica
funcionam
sinto
normalmente
150
olharem
##ómetros
costs
apply
vivemos
fábr
exactamente
address
divid
lembrar
permitir
ocean
certainly
copy
college
office
enviar
citizens
prosper
website
câmara
período
Su
Sw
bact
fing
harm
lines
sn
##ned
##dades
##ughter
##hh
##éis
emiss
nobody
##ified
daughter
##hern
##ocol
plac
manip
rights
camera
palco
vision
remind
provid
equil
organização
especí
Esse
continua
allows
standing
photos
tratamento
diseases
indeed
padrão
astron
femin
Geor
Universidade
Egypt
military
Mesmo
random
Cri
Me
cos
cod
drugs
ganhar
lista
peix
##nia
##via
##ystem
##ID
##PR
##iza
perfe
veí
impr
simul
Segu
cases
perspet
decades
expensive
governments
Muse
sinais
necessidade
connection
Afgh
evolu
universal
aument
Sabemos
walking
radical
direction
lembr
obviamente
lutar
range
taxa
morrer
fossem
semelhante
árvores
straight
Bar
Fal
Ro
cav
dign
dance
har
vast
##oid
##ms
##cher
##vio
##atory
##aticamente
##icana
##imens
alive
conect
##estic
usamos
leis
##rupt
tex
genetic
poderíamos
livre
##urais
understood
verdadeiramente
volume
milhão
devia
experiences
##hecimento
##iração
ambos
reading
speaking
sorts
skin
peso
proteín
biologia
reconhecer
monitor
listening
aceit
gradu
parede
povo
Dan
Los
Over
lu
mista
vant
##gina
##ald
aber
##ceu
content
coal
dificul
Algum
artista
céu
devices
##ássemos
##ânico
2000
memor
vossas
##ratch
complexo
sorte
smaller
políticas
baixa
fash
Another
##ortunately
##alax
extremamente
administ
pudesse
vacc
improve
degrees
deveria
practice
emprego
recognize
involved
##ISPR
remarkable
CRISPR
period
Jan
Num
Rem
breat
bank
bodies
gén
od
rac
sam
vest
##hi
##win
##orar
forem
novel
daqui
above
contact
humanity
matters
afect
artist
tells
regist
região
useful
shown
subm
pena
helped
conduz
condições
kept
memória
Pres
medicina
observar
divis
documentos
impression
décadas
feedback
circu
página
indivíduos
telemóvel
cidadãos
azul
Haiti
entusiasm
fashion
75
Cong
Da
Like
Sul
Somos
Tra
bor
core
fish
frag
gás
gather
horm
sor
sight
sendo
weren
##got
##gers
##óst
##âne
enjo
##elet
##ila
##acidade
acima
atac
chão
verde
##enda
frase
vehic
shap
contribu
cooper
tempos
##ibilidade
assem
querer
teen
anybody
hero
explos
encontrei
regular
##ínio
2009
percebi
himself
points
membros
ligar
atravess
propried
electron
convosco
juntar
earl
decisão
character
trees
depressa
treatment
critical
branco
German
biliões
colleagues
including
village
neighborhood
partículas
Dav
Fe
Fui
Mov
Sa
Sent
fit
fonte
hur
host
logo
narr
pés
##light
##how
##band
##ídeo
##arily
##inct
tocar
coment
##utu
estrat
weight
Think
exh
worry
Web
tema
carvão
pele
##heim
brother
poucos
explic
direção
region
curso
Muitos
describ
circul
products
silk
2011
religião
jobs
decisões
multi
quiserem
laws
following
máquinas
closer
seda
impossível
University
descoberta
dangerous
Certo
Im
XX
Your
avi
aulas
bread
fen
fib
loss
ness
nacional
pul
viz
ób
##ll
##tos
##iation
##pose
##ést
##ír
##wise
quê
mex
meios
##ending
carry
imped
##hington
pensamento
senti
seguro
muda
phenomen
verdadeiro
##atividade
chamar
decide
secund
Muitas
err
highly
##ético
sky
private
aplicação
photo
challenges
cultiv
debaixo
female
double
impossible
arquit
passwords
imediatamente
hipótese
cedo
Encont
contexto
Ninguém
Vídeo
aleg
cast
dro
lose
luck
ori
paixão
sand
table
##upar
##bar
##aso
##ann
##anz
##itário
##itution
inev
estive
##irar
##igor
##odes
price
prática
##ager
##ended
usually
##illed
eletr
tempor
unc
##prene
infra
workers
simpl
afet
essentially
surgery
tornam
reduc
entreprene
nestas
complete
chegou
espero
decidi
horiz
effort
##ália
filha
internet
##acionais
clearly
production
mercados
encontramos
magic
tiveram
bebé
terceiro
galáx
vítimas
Washington
inevit
23
Ab
Dar
Diz
Lat
Onde
Take
ale
dorm
galax
hus
mention
pack
rom
rural
spo
sites
yeah
##iquei
##pção
##úr
##eses
##atom
##itiva
##icional
infer
##ray
weap
nove
stars
aceler
##iform
##usion
sharing
##ontade
dispar
agrad
##ósito
click
manuf
##fera
espaços
Quant
incent
income
importância
polar
polícia
See
soluções
Cham
informações
função
reduz
regress
paid
greatest
excited
erros
speech
electr
connosco
calor
convinc
aprendemos
religion
target
##ariamente
watching
dirig
oceano
elementos
felizes
nearly
insects
doctors
campanha
americanos
victims
Angeles
Aprend
fenóm
22
Ah
Air
Bill
Po
dança
gri
ha
linhas
rar
sul
sons
tua
vontade
##cy
##Tube
park
##urar
ancient
abund
##ops
serve
usado
terrible
recent
interesse
spirit
clin
##ounds
YouTube
inclus
##appear
genome
poup
scan
factos
valores
held
memory
pedaço
sério
Acred
trip
gostam
paint
concord
armas
pública
utilizar
##ografia
Frank
diria
daquele
waiting
inteligente
estrelas
conteúd
illness
alcançar
Irão
floor
financial
Oriente
BG
His
School
bater
cord
corn
cál
fug
hole
tur
veter
órg
##iados
##aling
##raco
parque
##aving
##istics
stick
sermos
terren
disord
mesa
##prim
infect
Quanto
obst
queriam
##eganist
buraco
solo
board
confr
devast
nestes
letter
Poder
natur
protest
subs
##phere
repe
deixa
##ónica
engage
perguntei
complexidade
certamente
Afeganist
controlar
Acont
gostar
Existe
massive
multip
bringing
organization
legal
estruturas
transporte
explorar
segundos
oportunidades
saving
streets
Grand
surpreendente
demonstr
invisible
irmã
emotional
cirurgia
moléculas
Francis
quilómetros
perspetiva
Algumas
Afeganistão
Fa
Her
Hom
fine
fech
ju
lau
pão
pet
paz
ritmo
tido
vindo
##iat
##zheim
##ball
##ination
##emo
apont
##eder
##ids
wealth
expos
##unci
goal
##usc
peça
##ogos
##tually
contrat
resil
##bling
unl
escut
##icha
fala
pensa
brings
intens
genoma
oppos
Alzheim
Chama
##aixon
viu
profission
expon
Esp
slight
riscos
particularmente
projects
trabalhadores
imaginem
acham
significado
possibilidade
Desco
obvious
##ópio
implement
##orrer
dimensional
molecules
communicate
estiverem
criação
chemist
performance
symbol
estivesse
Japan
check
desemp
Alzheimer
27
Dec
MI
Res
Rich
WK
War
ahead
band
pé
##ees
##eiros
##vard
##MS
##into
inici
injust
##idro
##ecut
##etes
dog
##ulos
struct
chu
trade
usa
##tual
##deia
incom
##rasil
poderoso
Dev
##beu
olho
tornaram
forms
Thanks
beings
valu
avoid
greater
viram
conditions
interessantes
propósito
professional
stopped
aumento
objects
pressure
##legal
mensagens
service
services
epidemic
Outra
raise
apoio
chemical
##anistan
Sometimes
sleep
Afghanistan
Richard
Dem
Fre
Keny
Mex
Sat
Vai
ade
famos
gold
hall
lands
mús
om
##rica
##son
##cito
##vive
##jas
##fl
##íram
##ored
##ises
town
apanh
ine
intu
##rage
forget
anc
emo
##riam
verão
##used
shift
disappear
##ological
dipl
##ego
esteja
poet
Apenas
##untos
sentem
survive
diferenças
proced
philos
decade
momentos
##iction
biom
members
driver
certas
absor
silên
markets
easier
democrat
##ometers
failure
focused
tantas
##abbage
incluindo
mecan
Começ
##fortable
immediately
género
estratég
Babbage
Did
Ma
Médio
ax
earth
lack
lider
mill
níveis
sap
##ee
##right
##tas
##gen
##osystem
##esia
##ange
##ishing
##othes
##entação
appl
apaixon
##edd
##imed
pares
##iger
##ulh
Anderson
bees
##ifer
##ceed
pern
noticed
usada
frame
vejam
agir
reserv
##astre
carne
##ossistem
master
somehow
infrast
obes
dizia
humanas
solutions
##iosos
equal
condition
##anced
conhecemos
estradas
acabou
seemed
extremely
strateg
empower
admit
experiments
altru
luta
inteligência
journal
garant
línguas
molecular
insectos
reflect
terceira
estabel
respeito
bacteria
Natureza
MIT
Bit
Sal
dito
efeitos
fogo
lin
luc
merg
pis
rise
roup
vas
##undo
##tain
##iamente
##hem
##ements
##ami
##iminal
##igma
conver
##ulta
exig
exterior
##izadas
##cipl
imun
##ende
notas
##elling
fazerem
train
willing
ideal
poderão
196
investment
##enciar
##rative
obsess
tradicion
Actually
playing
healthy
answers
minds
glass
medicamentos
permitem
versão
prisão
degree
Olá
desej
química
surprising
Havia
princípio
aspeto
Second
earlier
profissionais
James
Nan
ci
eg
gelo
jard
mix
mount
rai
tough
zo
##iel
##cional
##zes
##bos
##gl
##ismos
##emun
##reet
##eda
##idimens
##rais
##etric
aldeia
##acular
stri
perda
desl
series
previ
##deos
spect
clín
espí
infant
começo
falamos
ecosystem
surround
conseguiu
Christ
constitu
começamos
anti
remov
##âncias
##ídos
idosos
barato
investimento
chega
claramente
belief
complexity
olharmos
appear
enormes
responsabilidade
radio
Leon
desafios
expressão
depressão
broad
adoro
farmers
communication
Neand
Harvard
strange
enfrent
please
square
proteger
sustainable
esforço
tissue
Francisco
silêncio
Bro
Braz
CO
Nat
Sy
Sch
cem
puzz
ratos
swe
trop
trib
vive
zona
útil
##aks
##IV
##esh
##oras
##alha
defic
##icans
##quist
almo
##acial
anatom
frustr
lie
contem
contribut
##deu
plat
##ucion
evitar
criatividade
matar
tecn
##though
crime
medir
insight
chamo
poucas
##ropri
##rava
##eleza
Hey
encontro
##issem
protection
particles
##rows
positive
##ientemente
faith
negro
negros
programas
decidimos
##athy
difíceis
lesson
terminar
considerar
##ército
custom
##vision
Once
extreme
directly
scientist
tratar
aprove
benefic
European
ferramenta
inteligentes
tanta
diagnost
florestas
fortes
opinião
desaparecer
bocado
algorith
occur
fully
Nobel
análise
arquitet
husband
confront
ancest
espírito
Brazil
CE
Inde
Middle
Nas
National
Vir
bunch
beleza
cen
dão
king
mel
mold
sad
tap
tree
##çado
##vam
##ground
##ún
quart
##inary
##alk
##itação
##ecemos
##olt
##ays
store
states
acomp
waste
##agir
areia
trend
peças
legs
falam
entrev
Street
feels
reprod
##anhas
propag
risks
universidade
##atórios
easily
corresp
incríveis
Prov
machines
##ológicos
objeto
broken
epidemia
hotel
blocks
financi
museum
aspecto
efficient
interview
brincar
Austral
wheel
infrastructure
35
Gl
Green
Mad
Mund
North
Pat
Vemos
burn
bola
velho
##vement
##órias
##atia
##oust
##itoc
##itária
##eladas
##raid
##rabe
##imately
parado
reais
forças
##rian
noise
stren
pré
prem
suport
##gust
shot
teriam
carta
heat
spaces
knowing
cla
##berg
Which
fals
##ildren
##heiros
afirm
bridge
burac
##íss
funct
famous
differently
encontram
##agement
throughout
provável
author
studies
glob
##édia
testemun
micró
minuto
delic
felicidade
Art
career
quantum
skills
alien
begins
obrigada
origem
standard
significant
From
analog
tendência
pressão
versus
passei
encontrámos
switch
comprom
ouvido
nervous
rápida
sítios
estrela
parecia
Western
review
enfrentar
adolescentes
Palest
counter
enjoy
Mundial
strength
buracos
36
45
Brasil
Cy
Ev
Eis
Each
HIV
II
Jer
Mr
Mc
Mars
Russ
Sm
Som
aware
dad
dentes
je
lav
rio
sick
tat
vent
##eiramente
##lands
##ubl
##cape
##ães
##ág
##éx
##ania
##oty
toil
comuns
##anta
##seg
##ulate
forever
##rific
beat
prove
perfeito
implic
usá
therefore
##bram
traum
eleições
afraid
##ficas
encou
anywhere
bub
sentimentos
##iosas
artistas
meters
encontra
formação
plane
presidente
feelings
deixou
helping
male
creativity
comunicar
Toda
believed
slide
grave
trial
edge
physic
individuais
armaz
públicos
Lev
Canad
Prof
holding
fotografias
elements
apresentar
birds
serviço
científica
dispositivo
ordem
types
kilometers
Californ
holes
escrita
Amazon
agricultores
História
Acontece
Bas
Coca
Lem
PM
Part
dot
gut
más
sím
vaz
##oon
##uild
##iares
##mm
##ba
##áb
##gens
##kn
##IB
##aster
##aturas
##ali
##amin
##roc
##erei
##estrut
acess
abst
aberto
imens
##icais
##ectual
notícia
uses
shad
lixo
compos
gram
heav
upon
escond
##ured
match
teu
related
consist
invas
marido
ecossistem
sentimos
Alguém
longa
config
poupar
redor
pair
ended
importantly
drink
voar
convid
Foram
Acab
compreensão
seconds
segred
2012
plants
international
consumo
lembro
##idden
trein
proteção
primeiras
joy
invented
affected
crucial
##rogas
rapariga
mathematics
exerc
pleas
cardí
nutri
terrível
troux
named
iPhone
método
tarefa
##enharia
fenómeno
multiple
slightly
chuva
pernas
California
Const
Eram
NA
dado
dots
lados
rout
vag
vento
##dom
##oo
##enciais
quente
##ales
##idental
##eca
##iling
reve
requer
whose
forth
Thomas
beet
abert
pront
imper
elimin
contas
entra
estás
espet
everyday
otherwise
##itted
essential
marc
poderemos
poderosa
Além
instance
artists
##ricas
##ianos
##cionar
##âns
basis
values
below
smell
studied
turning
larg
##ancos
conhecem
conhecido
necessary
cheia
evolved
##inson
vídeos
sensor
trabalhos
responsável
glac
decisions
imaginação
capacity
languages
conseguirmos
possibly
##ológico
version
telesc
alterar
vozes
walked
americana
tantos
temperature
pacientes
irmão
dedic
current
técnicas
Instead
Institut
mechanical
disponível
gratu
microbes
therap
carreira
excelente
interpret
George
opposite
Alex
Bab
Cola
Dis
Min
SMS
US
Would
bio
banho
ce
cores
cai
den
drogas
eating
fós
gain
les
nation
rique
át
##eper
##my
##vere
##zen
##GO
##oting
##itness
##amp
##edores
##ecido
estados
fore
meia
exce
extern
noção
##cience
##ocin
##orto
##apor
orb
fazendo
displ
agree
leaves
##bridge
recente
feitas
unidade
##print
colon
queríamos
cry
brut
##culp
intest
encora
anyway
precisar
solid
##iosa
surpres
iremos
flores
##atives
menor
reduzir
secre
escolhas
Ste
##ídas
construímos
exclus
testes
testar
accident
However
creates
interessa
graus
ocup
Does
choices
cientista
plantas
levels
responsibility
audiência
beauty
habitu
cuidado
daquela
suficientemente
tuber
surprise
walls
aceitar
hyp
doub
prazer
temperatura
renov
British
robôs
desperd
London
companhia
destroy
direcção
fábrica
conteúdo
terreno
adequ
Bitco
micróbios
ED
dry
dyn
gap
kg
lit
mouth
wid
##ricos
##let
##uas
##tiliz
##gram
##ison
##itado
##reu
##rey
##ionally
##iven
##odos
empreend
##una
acaso
soil
##opatch
chimp
vert
worst
shel
lição
elét
##tured
agar
prevent
cards
algures
##ucks
manage
escrito
Inf
obra
transc
essencial
Apple
precisão
precisava
sentence
construct
flutu
antiga
##ataform
secure
letters
curious
##ídio
existir
hearing
##ancy
conheci
normais
horr
tradicional
Atl
cabelo
detrás
quantos
Talib
robots
enormous
ponte
leading
dollar
resolv
organizações
vacinas
preocupar
depression
sequência
principais
acreditam
maravilhoso
bomba
majority
profunda
benefits
raised
descrever
telefone
sustentável
track
ataque
Gostaria
##ytocin
combustível
analisar
reconstruir
bactérias
structures
tradicionais
Nanopatch
##idimensional
Leonardo
##éxico
símbol
Could
High
Ke
Mil
Micha
Saud
Vi
cic
caught
fé
gender
julg
tons
##aff
##ties
##mes
##mar
##hemos
##fi
##esa
##ench
##onom
##atures
##ady
toc
##rete
##olar
##antic
anterior
mail
stuck
##opia
##opard
perigo
trick
desire
terão
resid
gras
Estado
recomp
interven
spider
cloud
podermos
differences
Ali
consegui
camada
signal
formar
profound
distance
commit
naturais
prova
ficaram
2007
active
limite
received
##ginas
certos
harder
##isms
ocorre
político
skelet
conclu
##énia
musical
religious
imagination
inspired
projetos
effects
identidade
organizations
Você
treino
microf
messages
televisão
##órnia
saved
altamente
swim
connections
magia
cadeira
diagnos
oxitoc
bebés
summer
aperceb
Antes
collective
exercis
brilhante
Califórnia
Iraq
emocion
substituir
consciousness
chemistry
puzzle
Profess
Bitcoin
oxitocina
26
Ber
MR
Mand
Manh
Times
Wal
cair
cír
dol
páss
rat
rato
sister
vig
vote
vidro
Às
éramos
##pto
##kers
##atar
##itz
##ament
apre
apanhar
comet
commer
##ecia
##olo
##ividade
whom
##acia
##ester
##estres
##unk
atual
daí
chain
canção
trillion
trâns
##cha
desesper
##veja
peer
frases
##ontes
arma
preci
plataform
justiça
recom
managed
##ording
assign
mostly
mostram
passed
corru
essencialmente
moda
twice
happiness
expert
##uração
background
2050
antigo
vibr
facts
remain
salas
##rench
2001
##itarian
defender
error
errada
voices
creio
Americans
discut
escreveu
urg
aplicações
advant
watched
definição
##ubble
missão
mission
sequence
envolver
conflitos
Essas
##onym
spending
engineering
window
oxytocin
blocos
atingir
tenhamos
páginas
naveg
##attan
dispositivos
purpose
indivíduo
Central
dezenas
Paul
argument
princípios
Londres
detail
describe
perturb
ótimo
bicicl
amostras
intelligence
facilmente
Segundo
David
described
Kenya
platform
EDI
Manhattan
French
Glo
Jew
Law
Mod
More
Pass
Pelo
Tes
Torn
Viv
caf
dil
dung
eld
frio
gard
hid
hate
ost
tit
task
àqu
##off
##uit
##uary
##ár
##father
##éct
##óis
##ered
##esome
##enar
##ening
quiet
##inta
##organ
##onas
##isl
##omin
##igu
congest
##acos
##ulation
##ulação
forces
anter
##ables
neut
desist
teremos
teríamos
partners
ouro
trag
clientes
uniform
facul
eleph
mostr
corpos
pensava
pensarem
bright
Apesar
casamento
install
instru
blog
cama
moments
explore
experienced
Stan
militar
economics
avô
avançar
preserv
president
##teis
retina
barb
façam
investir
##ólogos
bits
desenhar
violent
attract
mortes
contract
termin
played
gostamos
university
máx
representa
libertar
privil
operating
tivessem
Reino
Canada
domestic
rádio
Everything
fixe
Trata
conflito
impressão
ingred
ignorance
ignorância
agricultura
invisível
fascinating
instituição
rodas
consequências
various
disponíveis
cheaper
cognitive
oferecer
Obvi
suffering
details
unfortunately
expansão
applications
William
infraestrut
corner
valuable
landscape
emoções
riqueza
dynam
600
Fic
Pri
agu
cure
crac
catch
euros
hem
mú
punch
river
rosto
sides
tendo
tub
vender
wide
árabe
##iest
##vest
##úp
##30
enfer
##alous
##empt
##icago
##eds
##iles
parad
##iring
alvo
cong
weather
meat
##tery
daily
desert
veget
somente
eletric
agr
##émio
leit
amp
interface
clip
faces
infelizmente
estejam
criminal
##load
capita
Chicago
20th
antib
##neath
demais
profundo
Unido
accur
limites
decidir
geralmente
olhamos
##anging
busca
circum
motion
médica
detet
##ception
cheguei
neuron
baseado
##énis
privacy
filmes
effectively
##ótica
fantastic
Queremos
possibilidades
satisf
frequência
terrorismo
babies
failed
arranjar
profundamente
susp
arquitect
slowly
americano
Aquilo
vermelho
telemóveis
constantemente
damage
Cambridge
relativamente
fairly
Iraque
reputação
release
ondas
copyright
aberta
óbvio
Darwin
manufact
laugh
CO2
arquitetura
trânsito
Tesla
Cur
Free
Last
Mart
Norm
Norte
SS
ater
ação
bias
crop
damos
dens
due
fell
fase
fome
gent
gel
loud
migr
ring
roc
sen
vide
wild
##des
##rados
##lin
##uk
##ius
##iency
##yer
##gr
throw
##arre
quânt
##orias
##omo
##oman
##ented
toler
##idi
##ecion
parce
estilo
alimentos
alarm
although
##aching
weak
execut
##izes
chines
seriam
Their
##ogr
aranha
discipl
aging
##bled
grade
##bral
trained
manusc
espect
colet
passam
crimin
brill
intrig
opções
Alem
instruct
institution
phones
Comecei
gotten
extens
##itações
confirm
metal
devíamos
##posto
factors
registo
##ânia
##ysis
autocar
avó
##ribution
homes
barulho
fake
##ancing
soul
ligações
suced
causes
necessidades
1000
carefully
##airs
lights
viajar
privacidade
aumenta
heads
nucle
identity
France
domést
pudessem
immigr
immune
documents
comportamentos
discovery
extraordinário
depende
environmental
join
behaviors
savings
influence
opportunities
benefícios
miúdo
esquerdo
obtemos
awesome
Contudo
cartas
técnica
semelhantes
dinâm
suicide
Center
narrative
despite
rendimento
afastar
atmosfera
emocional
entropy
entropia
dúvida
bairro
safety
vaccines
vehicle
phenomenon
Michael
##opardy
800
Day
Josh
MT
Mic
Marte
Other
PIB
Sand
Tun
Tony
bud
billions
cra
cow
cens
date
hack
lying
lâm
rab
race
spl
velhos
##tim
##tudo
##mother
##cel
##NG
##oster
##alu
toca
inj
inic
reward
alma
##aced
##aust
suit
suje
##apia
vergon
shop
compared
agress
##bles
##airo
escar
sobretudo
##ilha
##ologist
criamos
criámos
objecto
elef
incap
falh
teeth
tecidos
consult
possu
sentia
calling
torno
chamam
##ítulo
minim
economies
dupl
moves
retorn
excrem
chegámos
engenharia
clara
diga
published
succeed
complexos
produced
aparece
descobriram
luzes
multiver
equipamento
charge
legisl
definition
Desde
biological
activity
participar
followed
terrorism
Adoro
elemento
fantástica
molecule
comercial
diagnóst
Jeopardy
renew
paredes
toneladas
Japão
espantoso
atmosphere
Human
struggle
launched
depart
peixe
texto
proteínas
Trabal
fragment
lucky
galáxias
órgãos
eletricidade
Aud
Sing
Tur
bought
cum
crow
drag
eth
fold
gord
giant
mid
nomes
pock
rough
tun
wire
és
##rough
##ipo
##iers
##men
##fo
##órios
##ífer
##wood
##worth
##orrow
##ono
##ised
appre
##edy
##edor
##rof
##uta
##ille
##etos
##olas
replic
##quir
##acters
wear
##anted
maint
Three
##umo
##riz
prol
struc
atualmente
proud
cheio
##che
desv
shif
contain
termo
agre
caro
recover
escal
escuro
colors
diál
##ouses
criou
false
poesia
Asia
twe
Sept
##ixo
opção
underg
underneath
mudaram
visitar
factory
##enham
provar
provoc
braço
idênt
childhood
2005
accom
programs
programar
pedaços
cabo
quantas
apareceu
silence
conversas
arms
2015
religiões
Only
breve
principles
pages
250
tentativa
hospitais
físicos
Estávamos
exploração
estranhos
extraordinária
daquilo
missing
eventualmente
voltei
tiverem
roads
complicado
deveríamos
empregos
deeply
fascinante
dedos
científico
surprised
blockch
mathematical
Sempre
chips
museu
recolher
fundamentais
molécula
rendimentos
desconhec
civilization
cegos
divertido
sugerir
dificuldades
Acredito
diplom
Stanford
escarav
32
65
99
Austr
Bret
Den
Disse
Fil
GD
Hou
Int
Vão
Yet
bos
iriam
lect
round
ven
wood
##hy
##íc
##wide
##OL
##ased
##aled
##entamente
##idence
##ett
seas
refr
##quem
empt
##tered
bee
abra
pronto
praticamente
triste
nação
nota
##ears
##point
shock
terá
preto
europ
##astian
leaving
justice
inters
dose
unit
infl
criado
falhar
passaram
sabíamos
Seb
marria
genética
calls
##ificado
iron
conform
metab
signals
devo
deviam
scared
patent
State
Again
movie
designer
fizermos
2004
define
morreu
digitais
ambient
limited
##peech
monte
perguntou
recebe
continuam
caused
necessária
election
planetas
juntamente
Academ
pretend
discurso
aparelho
opened
ponta
politicians
empur
fantas
consumidores
possibilities
seguros
characters
batalha
reconhec
depends
alterações
##ópia
cortar
ouvimos
ouvidos
rule
balance
fabul
meeting
perspectiva
strangers
militares
layer
Britain
árvore
Scot
cozinhar
tremend
características
ameaça
diretamente
volunte
distribuição
pintura
sector
detalhes
ultrapassar
##íbrio
introduc
sorry
Germany
avião
galaxies
Homem
correspond
Provavelmente
NASA
foreign
faculdade
brilliant
vergonha
September
GDP
72
Cas
Ciro
Dep
FO
Gates
Mã
Minist
México
Od
Ox
Reg
Sun
Tex
bul
bag
boca
coc
canto
cras
dying
ef
eixo
fle
feira
fontes
gift
hell
jam
mouse
obras
tan
waves
witness
##nect
##lem
##uh
##iamos
##pest
##pap
##zas
##osamente
##ened
##arc
##atts
##ising
##itamos
##itários
##enty
##rol
##iment
conhe
##lyn
##istan
exch
exército
acção
abus
persegu
##apse
outc
franc
faziam
lies
arre
agg
carto
plate
interlig
unex
##iped
Inc
worldwide
destruction
grandfather
guer
syn
demand
distribut
Islam
##lti
##iversário
minús
vale
faça
virem
shouldn
defend
excit
testing
##ónico
##encies
interesses
fewer
normally
montanha
gerações
olhem
tradition
juntas
papers
mortalidade
viaj
custa
sonhos
advog
Queria
ultra
possibility
culturas
moderna
fronteiras
climáticas
quisermos
protein
preparar
entirely
dimensões
dimensions
recorded
electricidade
closed
contrast
empreg
illustr
songs
citizen
destruição
reaction
saudável
concern
descobriu
espalh
recuperar
reputation
adicionar
cerebral
Espero
veículo
imprensa
Museum
##chers
secundário
alegria
gripe
poetry
linear
Indeed
Cyrus
toilet
Global
congestion
múlti
videos
Austrália
Houve
FOX
Mãe
Av
Dire
Eric
Fund
Fiquei
Great
Good
Mary
Nels
Perg
Tivemos
Very
Wall
aid
dout
fêm
hi
jail
lóg
mad
mín
nele
nela
names
row
rare
sess
##nger
##iqui
##iques
##pam
##hen
##zy
##yle
##áf
##gets
##óx
##íqu
##aries
##inação
##onde
##atically
##iso
inim
inicial
##identes
##rações
reven
asc
##ulture
forced
forgot
aniversário
stood
stret
acol
atras
triv
note
shr
shame
sombra
eléct
contacto
coinc
grate
events
saída
Quénia
criaram
assass
poem
margin
oposto
grandmother
survey
##ificamente
##ificados
persist
funny
explan
centers
tij
191
protót
prototy
belong
economias
existência
studying
completa
helps
acceler
driven
creation
attempt
elections
motivo
illegal
médio
supply
gostava
considered
conversations
religions
radiation
identical
internacional
##ístico
França
analy
Everybody
satell
Seria
cortex
broke
fogu
dealing
Musl
hyd
colega
bloco
banco
currently
reparar
smartph
igualdade
sozinho
prestes
passionate
Scratch
perigoso
cooking
cyber
Parkinson
bairros
quadro
employees
mamm
gestão
envelhecimento
emissões
cosm
propriedade
comentários
vizinhos
uncom
Mexico
axis
##imedes
roupa
Canadá
Infelizmente
plataforma
máximo
excremento
appreci
empty
Sebastian
outcomes
FOXO
Nelson
28
700
AID
Costa
GG
Gener
Jes
King
Nada
Nenh
Sha
Vis
aer
ações
bens
dum
filled
hide
hamb
iam
lua
mentes
ras
tag
vá
vit
##ration
##rase
##rón
##çul
##aa
##uo
##here
##bum
##ácia
##fia
##ífico
##ength
##enheiros
dei
##stery
##adinho
##rel
init
younger
conven
conex
wearing
##antar
maxim
meg
acidente
choc
##eição
##gues
notion
##ogram
argue
compare
cobr
agenda
prever
party
partner
resource
##bliot
plus
realiz
clima
espacial
facing
infância
##ologists
##idez
medium
possíveis
diagram
capable
capture
blá
blah
campos
Comp
flat
artigo
meter
##encing
script
planets
subir
braços
progresso
repair
actions
ends
ajudam
construí
pux
familiares
ligeiramente
causar
generations
processos
ilust
ilumin
culp
acres
fourth
keeps
radiação
ultimately
epis
pudéssemos
definit
gravit
proteins
objetos
hospitals
##rief
##ographic
separate
dreams
practical
##abby
circun
mecânica
fighting
ordinary
Voice
typical
constantly
Phil
shoes
efficiency
survival
espalhar
ataques
janela
conclusão
viruses
equivalente
equilíbrio
Descobr
applied
zoom
previous
cenário
Australia
compromisso
bubble
surpresa
doubt
elephant
Alemanha
rabis
Cap
Di
Eth
Jenn
Nor
Pak
Uber
Wik
aim
indo
mig
pól
ress
smo
tang
típ
van
venc
úteis
##cles
##hol
##ãs
##vidas
##jos
##gent
##ET
##areness
##onho
##otic
deeper
##idel
##iders
##idamente
andava
##ute
dood
rei
##urch
convert
##seis
anún
maus
##ests
acus
acting
##izo
##key
##azine
canal
verdes
imenso
truck
desenho
deslig
usou
##inder
contrad
coff
disab
disability
##ansas
thinks
escap
however
diam
dizemos
assin
passos
conselho
##intas
sabiam
transição
##iev
##culpa
intr
inteira
encar
encaix
boys
Also
underw
constante
flag
decl
confiar
signs
explod
explicação
##ianas
scene
distingu
bela
idiot
expected
pensarmos
controvers
viral
sets
setembro
engenheiros
digamos
estudante
ensai
fiel
ilusão
transformação
chef
concrete
Dois
mág
fertiliz
army
##atória
rooms
corrente
especialistas
advice
capacidades
empatia
Organ
moderno
climática
transportation
cuidar
satél
Perhaps
esquel
treated
explained
aluno
engineers
económica
mobiliz
Grã
variation
parecido
diversidade
emotions
Jeff
revista
dinner
requires
Voz
gastar
escritório
tracking
saudáveis
civilização
companhias
conferência
recebem
senhor
gigantes
tarefas
bicy
amostra
transmitir
sobrevivência
perfeitamente
atravessar
entrepreneurs
mentioned
convinced
repeat
desempenho
jardim
mountain
infantil
therapy
hypothes
Professor
Mandela
garden
diálogo
Bretanha
grateful
Pakistan
38
Bud
Cor
Che
Dia
Gh
Have
Life
Mulher
Numa
Sr
Science
Tive
Vict
bill
bound
cil
ears
ego
fec
gol
gall
grown
hidden
mir
none
otim
pion
tim
tentei
vapor
yellow
Ásia
ópt
##net
##çada
##ih
##care
##hei
##bn
##bur
##fin
##ândia
##Speech
##enes
##ará
##anes
##iday
comfortable
##uries
Andrew
bear
esmag
atribu
porc
práticas
chap
##azz
cober
dissemos
tempest
interagir
numer
spot
sport
realizar
escura
diante
hasn
diziam
simult
coral
consent
brit
brinc
##ification
Cheg
flor
flip
torná
declar
secular
demor
##rane
Step
salt
owners
existia
construído
biod
sett
comunic
##quired
ambul
circle
graças
refug
ocas
occas
acaba
courage
silent
mantém
leader
added
corrig
responsible
tivéssemos
objectivo
advent
advanced
internal
##ástico
correc
climb
permitiu
battle
paisagem
expression
ouviram
oceanos
steps
principalmente
promise
eficiente
comprimento
cruz
Next
diversity
awareness
gasol
assistir
perfectly
Aquele
require
navig
expandir
alternativa
bocadinho
increasingly
adults
aproximadamente
sofrimento
fundamentally
pintar
trouble
21st
Conseguem
jogar
rapazes
vulnerable
relevant
announ
astronaut
veículos
Museu
Congo
explosão
narrativa
weapon
haja
disorders
almoço
contempor
CEO
átomos
Steve
vertical
advantage
accurate
FreeSpeech
struck
54
Ben
Cr
Educ
Junt
Liber
MK
Mag
Mount
Nig
Pesso
Ros
Rob
ben
bow
bone
cel
cura
costa
deram
fór
fellow
gun
nad
ride
section
vital
wel
ál
ét
##uso
##pher
##hed
##hetic
##bly
##bola
##jac
##áculo
##gre
##écia
##ículo
##aros
##isa
##itmos
##icing
##icip
inner
##ette
paras
reação
asseg
##ache
##owing
##owers
anger
anunci
beber
academ
##place
##adeira
##agers
perante
##eios
##outhern
##udes
usados
usadas
arb
##ells
contém
pessoais
disaster
agul
prejud
##oked
grass
interm
##oresc
classe
manif
uncer
unless
esposa
eleg
##ptions
##ints
destino
inventar
poderem
primo
insist
Children
segura
seguida
flower
artic
confort
##ravam
scratch
goods
distúr
Story
minor
curto
mile
madeira
presos
designs
designing
roof
##tex
retrat
educational
organized
condutor
setting
interests
member
negra
pedra
olhando
últimas
necessarily
generos
##éticas
mães
refuge
baixos
Talk
tomorrow
cinz
silenci
trabalham
mantêm
leads
focar
director
businesses
utilizadores
wondering
consumer
Joel
newspap
quiser
killing
trustworth
honor
iguais
nervos
nervoso
influência
closely
deveriam
económicos
haverá
maravilhosa
sending
benefit
apoiar
Carol
status
statistics
apercebi
descobertas
químicos
consequences
mistur
mistério
discussão
variedade
curiosidade
bonito
rainf
adultos
sozinhos
pulled
atividade
fornecer
Guerra
Reparem
Solly
conference
border
neurol
engano
achieve
janelas
roub
application
Charles
Archie
nuvem
emissions
perfeita
mistake
mistakes
vantagem
shapes
exhib
fibers
nessas
inferior
acelerar
Saturn
estratégia
raio
Brook
diagnostic
Glass
jealous
ventil
vazio
segredo
dolor
pássaros
café
circumst
manufacturing
doméstica
Texas
uncertain
95
Bob
Bank
Brian
Event
Gabby
Hi
Kn
Lá
Long
Lib
Lembro
Mat
Miss
Sil
Set
Sir
Sei
Sud
Sign
Super
Tu
Tit
Val
Volt
bes
cena
etern
fato
firm
jump
purs
ricos
rode
tú
##nam
##ding
##ef
##rome
##oft
##uar
##tive
##iante
##cec
##hold
##vos
##zing
##bel
##bors
##enia
##encia
enf
enem
##inês
##ani
##omer
##itores
##stâncias
appar
inh
inac
input
inesper
##imet
sees
##ulgar
empr
stem
stim
stream
atoms
##opher
chinês
desm
notável
worried
usual
arris
element
loop
loja
precon
gritar
recus
recip
interac
ups
Inter
adquir
obcec
simp
coragem
pensámos
transition
essência
polu
experts
solving
sentences
irre
chamou
pouca
antigos
metap
Health
planos
Poderia
provas
curve
personally
equality
2006
court
##anhã
fundos
decidiram
gerir
highest
traduz
transformation
aprendem
##echnolog
viagens
baseada
cinema
partilha
liberal
privado
achamos
objectos
identificar
principle
##aneamente
fronteira
Mark
aprov
exploration
estranha
daqueles
stayed
perdido
eficiência
degrad
connectome
fool
options
seguintes
tivermos
160
figured
deaths
aliment
alcance
alcanç
Continu
fossil
resistência
Moon
statement
sympt
levantar
Paquist
technical
techniques
sofrer
seriously
meaningful
property
properties
instrumentos
microscópio
Finally
Finalmente
variação
aspectos
acontecido
Ocidente
quadrado
equivalent
providing
lembrem
odd
sample
nesses
Latin
Airbn
egíp
claim
shadow
pleasure
##onymous
enferm
maintain
Pergunt
stretch
##çulman
coffee
fields
Victor
Airbnb
EH
Econ
Kansas
Logo
Men
Mel
Obs
Ped
Red
Sar
Sur
Since
Tim
Time
Wats
bath
cave
cyl
eis
fest
fif
faria
god
ho
hier
hung
jum
jude
mur
pure
risos
rastre
vind
viva
##rass
##çamos
##sa
##iorm
##mark
##cl
##yal
##bora
##ju
##fast
##erly
##otar
##ads
toward
##ecnolog
##race
##etime
estaria
##igar
##aca
##ums
propos
noites
##ifying
soa
daf
abuse
chart
chorar
##agen
suposto
imensa
##eiam
##uses
user
##illing
mystery
terço
carr
plot
trav
clust
features
aquecimento
##ips
dialo
Quais
adap
advert
criam
dizendo
incer
passada
afinal
crença
needle
pensamentos
transpl
Asso
medi
married
solved
aconteça
funções
nasceu
extro
centros
vieram
score
visible
factor
remote
existence
equally
filt
barri
barata
completo
virar
membro
interessados
##upid
thoughts
##board
programm
decidiu
gerar
moon
recept
complexa
necessários
generally
generate
processing
gray
tradição
illus
transforma
morto
mortos
cabe
acabei
absur
chefe
potentially
##ércio
aparelhos
opening
TEDT
physically
##atórias
escrev
operate
addition
psiqui
120
Proc
reconcil
oceans
Perce
abrigo
compromet
voto
Before
##abbit
inspiration
traveling
morreram
palestras
paciente
policies
stronger
fatores
Qualquer
associated
neighbors
elevado
Egito
relacionadas
forests
catast
increased
Indian
searching
rebuild
componentes
Black
métodos
aspetos
proporcion
sanitation
introduce
mandar
onda
cantar
específico
conectoma
Remember
propriedades
hurt
cálculo
naturally
naturalmente
exposição
philosoph
mecanismo
sapatos
strategy
obsessed
intestino
ciclo
apreci
commercial
##ográ
criminosos
Singap
crowd
accompl
guerras
distributed
##rónomos
circunstâncias
refugiados
Watson
##iormente
Bost
Ei
Fib
Hall
Kore
Mal
Nar
Oce
Pete
Tent
Tínhamos
Uau
Unt
Women
Ze
brows
fought
jun
kick
mice
oy
tack
telh
vais
wis
wave
##eor
##rimin
##los
##uação
##hece
##ym
##ygen
##kin
##xic
##xual
##LA
env
##onac
##oter
queda
##rove
##iminar
seat
estação
weigh
anón
proport
staff
ato
atir
##izam
promet
chose
##agar
##apso
##usal
desport
fresh
liqu
##tualmente
contrar
territ
previs
carreg
leve
entrou
mascul
fazermos
evento
escrav
esconder
faced
incons
humanitarian
falsos
aftern
brancos
invited
channel
poderosos
persu
camadas
construction
##ativamente
metro
explo
reduce
formam
formed
finish
finished
192
##ânicos
subt
ficção
particle
puts
perception
barco
ajudou
offs
esperamos
engaged
membr
memories
##ólica
##ólogo
ligado
ligados
recebi
processes
botão
handle
extract
mortality
potência
collection
losing
piada
representar
dólar
medicamento
aplicar
desenvolvido
inspiração
advoc
empathy
challenging
Querem
ultimate
admir
experimentar
topic
dispers
laboratory
gravidade
television
prision
Olhem
1998
emerging
automóvel
votar
mentais
##ylon
official
agriculture
tinta
Vejamos
breakfast
variety
tensão
cartões
reconstruct
líder
opinion
replace
drawing
percebem
retirar
Escre
Consider
microscope
Obama
namor
hipóteses
jogos
avaliação
desconfort
assustador
classrooms
combustíveis
costumava
Fizemos
fracasso
covered
mamífer
peixes
proteína
lux
President
shaped
droga
weapons
regressar
Aprendi
Pois
Grande
democratic
Começámos
algorithm
propaganda
wheelch
armazen
ecossistema
trouxe
Constru
abertos
tubercul
horrível
Taliban
círculo
bicicleta
Prize
agríc
roughly
metabol
explanation
AIDS
Jesus
Descobrimos
esqueleto
hypothesis
manifest
preconce
##echnology
##ecnologia
Boston
Fibonac
Fibonacci
55
Bi
Brown
Cat
Fun
Five
Gal
Gore
Girl
Hen
Jon
Jack
June
Lord
Mud
Mother
Sl
Wo
ajust
bind
bond
bother
cão
cênt
fav
fio
games
hun
lentamente
length
mest
nal
pec
pip
pounds
pénis
runs
rates
sí
sources
tank
vál
##ti
##pected
##het
##hado
##ville
##bie
##ác
##áculos
##fit
##fab
##erth
thick
##inção
##aters
##isters
##alia
##omic
##itada
##itors
##itivas
##add
comem
##ionalmente
parent
##igual
##quake
conduc
weird
mundia
muçulman
##riet
stro
acad
acto
soph
##izoph
prat
cha
verem
imigr
Sovi
users
lições
arro
terram
terrif
preven
##oking
diff
ours
amanhã
height
club
manual
evalu
intang
encoun
livres
sentado
overall
surve
caminh
caminhar
Comm
funcional
menina
mencion
##rict
decor
confess
antec
antigas
centrif
tied
visível
distribution
Isl
curva
auth
autonom
##irei
avent
continent
repor
construída
bibliot
according
Naqu
engra
memórias
negative
storyt
soub
##box
ambientes
moeda
Proust
horror
observe
lessons
fibras
reflex
mortas
acabado
vivos
concret
##ógraf
embrace
2014
literatura
responses
resolução
Conhec
desenvolvemos
404
utilização
##apses
tratamentos
consumers
consumption
analysis
correl
Everyone
##ológicas
telep
reconhecimento
corte
##órtex
joined
danos
abrand
igualmente
innovative
windows
interaction
interactive
acreditamos
traveled
comparação
organs
picked
boxes
psychiat
alternative
telefon
technique
aproximar
specifically
concentrar
convencer
jornalista
repetir
transparência
##umbido
surgeon
crítica
crítico
introduz
affordable
Flor
africanos
credit
January
Number
samples
##âneo
drove
orient
entrepreneur
dormir
clinical
cordas
garantir
globais
encourag
beetle
fósseis
skeleton
exercise
elderly
diagnóstico
marriage
conforme
efet
exchange
unexpected
General
cilind
biodivers
Brooklyn
circumstances
wheelchair
tuberculose
mundiais
Au
Cab
DV
Eas
Found
Jul
Lab
NGO
Put
Ple
Ru
TB
brief
cora
cicl
dense
fico
fios
hits
jantar
lac
mast
mira
nú
paus
rosa
rigor
south
tort
tais
tour
tóp
zone
zumbido
âng
ão
##nes
##çados
##ault
##ued
##iada
##cal
##cut
##hop
##vesse
##bia
##bio
##õe
##II
##osc
##aras
##anci
devol
##enter
##entic
##sters
inex
inveja
##idal
comment
##roduc
##uto
##utiliz
##iveness
estarem
estacion
##irt
required
##urance
##lying
anx
maç
mun
beach
station
stone
stupid
ossos
##abil
cheiro
##agre
perdeu
##ocks
##enses
deserto
desculpa
pregn
preços
partido
grá
leather
plastic
trap
trauma
cláss
unidades
While
humor
wanting
worker
criativo
falo
falando
mostrou
importance
poorest
##ief
irrit
mudam
phrase
artes
olha
letras
profit
19th
1950
planning
patente
percentagem
protocol
sales
fiction
aves
presentes
perceção
technological
##ónicas
chegam
negot
drives
morce
attach
fuels
complexas
necessariamente
motores
obsol
grab
refor
grows
editor
Govern
discrimin
situações
silic
probabilidade
democr
adding
responsab
divide
Friday
pudermos
airpl
vacina
treinar
transportes
alteração
fixed
altas
cutting
interactions
accessible
label
clever
indústrias
estiveram
attacks
quarter
caixas
fortun
Space
vermelha
mosquito
Jean
spreading
raiva
curiosity
destruir
algoritmo
lifetime
amongst
victim
##égio
returned
vítima
diminuir
schizoph
selling
gigante
released
birthday
tissues
Nobody
conflicts
básica
##ântico
shipping
sintomas
sofistic
Charl
arrived
barreiras
infinite
astronom
graduate
dificuldade
vaccine
atacar
electronics
mexer
Quantos
cálculos
philosopher
earthquake
ciências
Neandert
Neanderth
sweet
aproveitar
functions
implications
acessível
commitment
discutir
dynamic
Martin
retorno
blockchain
lecture
Academy
Depart
conheço
lógica
cybercr
Pessoas
metaphor
Paquistão
Observ
fifth
dialogue
TEDTalk
afternoon
académ
sophistic
terramoto
86
Bur
Count
Ciência
Cert
Coch
Cairo
Doming
Felizmente
Give
Gana
JH
Jane
Line
Little
Nesta
Op
Ram
Sup
Sara
SID
VI
Ven
bamb
bull
bones
cable
dançar
fro
gato
hers
igre
lindo
líqu
tér
wake
##zed
##friend
##ka
##érios
##óso
##ív
##êut
##DA
##For
quinta
enab
##anço
##otos
##oton
##ouri
##ndrome
##eme
##item
toque
queim
quote
inch
comércio
##ecas
##utores
##imeter
##olos
##ivar
estúp
##qued
##oder
beg
##unas
##unal
proib
stock
##abin
abre
desastre
serm
arque
ages
prec
plans
amiga
knock
##brary
talks
##rup
assume
mostrei
##iveram
passava
esteve
corais
crist
essence
encant
precisamente
##hah
Chile
irem
phase
verdadeiros
nascer
tornado
tornei
chamadas
confident
antep
synt
signed
scary
1900
regime
Podia
remains
escolh
escolar
cursos
pergunto
Union
exists
filóso
barely
funcionou
tested
chegaram
creatures
superp
liga
olham
séculos
select
buscar
hardware
convince
extrair
detection
acabam
comboi
couro
painful
neuros
collected
houvesse
planta
especialista
inspire
standards
##óticos
badly
industries
absolute
personalidade
personality
tendem
tendências
surely
Project
gravity
maps
##fficient
representam
Perd
fluxo
investigadores
participação
participate
honra
Trans
Três
promessa
brown
option
dimensão
voltou
influenci
mentir
presented
England
Outro
bombas
caos
include
Moham
Ushah
mechanism
discussion
dropped
suggests
flying
fundamentalmente
brilhantes
Boy
surgiu
optimistic
borders
reforma
judge
paintings
Something
Medic
preval
relevante
sacrific
offered
cavalo
memorial
divisão
pulm
fugir
disorder
inequ
ciú
spectrum
customers
acompanh
abstract
Institute
destroyed
agarrar
Saudi
instruções
Obviamente
manuscript
cumpr
pocket
tremendous
##ipedia
trivial
Wikipedia
cylinder
receptor
illusion
DVD
Please
TBP
SIDA
Coll
Dig
Gand
HP
Hond
Jord
Lua
Mom
Nacional
Nike
Pop
Sub
Tor
Ug
Viet
Wow
boss
cup
córtex
dí
dress
junto
lançar
monst
pó
rent
sane
tenta
taste
venced
wars
##eis
##rámos
##ox
##oec
##ses
##iências
##yan
##bic
##bed
##fun
##íne
##ízes
##inter
##anca
##anze
##onica
##alin
depar
depos
deception
##amed
##aded
##icult
quebr
apropri
##elf
##raph
##ili
##olit
severe
parcer
##igénio
##urado
##owan
formos
##umn
##ested
##rições
##uno
storm
stands
stored
acum
sopa
##abel
aborre
canções
imit
desf
descer
servir
orç
shout
myth
aranhas
##eller
terapia
lob
preced
resum
leite
entrada
##uctu
feature
management
unp
units
hadn
Ingl
espir
facial
colapso
Quase
criando
criaturas
actualmente
rely
passagem
consp
pool
transact
invés
medidas
Apar
marít
marcas
sentados
surf
##ificadas
##ísmo
irrig
Comput
longas
##aterra
prót
##rang
regener
remover
remove
committed
ficamos
belo
União
bigode
location
levam
duplo
positiva
globe
actor
funcionários
defe
organismos
condição
##ificações
especiais
fariam
questionar
foundation
olhámos
únicos
busy
delight
##ensei
calhar
obsc
razo
Afinal
Arqu
careful
publicidade
combat
combine
discon
coloca
vivas
represents
Ann
trabalhei
escrevi
operation
corrida
revolucion
responsáveis
warm
##lessly
wondered
equipment
cultures
figures
researchers
hopefully
March
laboratórios
paying
mothers
Perm
missed
prepared
investigar
terroristas
competition
improvis
improvement
altos
implicações
views
rapidly
practices
cruel
oxygen
orgulh
irmãos
suspe
cartão
reflet
aperceber
consequência
cirurgião
establ
elevada
troca
raça
bonita
habitat
intellectual
measured
tonight
independentemente
sozinha
websites
accepted
relatively
concerned
colleague
estatística
historical
folhas
carregar
noutro
percurso
percorrer
dúz
expansion
aspects
##iquem
intelligent
africano
hoping
printing
fábricas
bactéria
placed
evoluir
dignidade
Daniel
##ânea
vehicles
horizont
inclusive
escutar
injustiça
liderança
ecosystems
enfrentamos
Evan
Jerusal
##ublic
Basicamente
recompensa
vigil
leitura
arquitectura
Normalmente
quântica
tunnel
agreed
Oxford
doutor
mínimo
initial
Ghana
rainforest
symptoms
incerteza
ciúme
Inglaterra
Bre
Both
Cop
Get
Hann
Ju
Mor
Mard
Númer
ONG
Pensei
Ra
RM
RB
Sí
Stu
Sky
Vas
Via
au
cad
dada
dict
efect
faix
festa
ganho
houses
ileg
kit
lun
nor
pink
pós
pista
pistas
render
tall
vess
êx
##ek
##rition
##sen
##ae
##uing
##tico
##ield
##com
##cão
##cing
##cado
##case
##zz
##fund
##gas
##RN
##Rabbit
##She
##Cor
##PA
##OC
##êem
##eras
##arão
##asing
##inci
##alt
##entro
##entional
inher
##edoria
##elar
##idor
cometa
##etta
##olars
##ionais
dozen
alem
angar
anonymous
ont
##estim
##rip
##ander
achar
sobr
porn
porco
chocol
neural
##ends
desigual
peço
pega
eliminar
coast
pessoalmente
##asta
carried
grát
recentes
recrut
recurso
interf
clock
yours
infe
##ologista
foie
criada
incor
##redit
passamos
crying
créd
sabedoria
pensou
polio
genoc
ecológica
primary
boom
##ificada
##entary
constra
flight
artigos
heróis
##ffiti
HeFor
secção
##issional
letra
percentage
Still
minist
proven
personagens
positivo
fila
investidores
biot
especificamente
esperava
engaging
errad
conhecida
digit
soup
ligada
limits
slog
##ographer
olhou
micr
necessárias
highlight
graffiti
Arte
ocidental
combater
populações
colocou
considerado
concl
robótica
earn
universos
embrac
portas
portát
##mann
identify
string
consciente
conseguirem
tentamos
ultras
##aneously
mustache
correto
modernos
debt
mapas
representação
estrang
daquelas
##ragem
esquizo
productivity
treatments
competição
##force
encontraram
holds
##ushed
Adam
conceb
speakers
nerves
magazine
1999
determine
fantásticas
voting
mentiras
offices
interacting
farmac
drawn
Geoff
respondeu
posted
sugere
arranj
Johnny
neurónio
sanguíne
awful
truque
abordar
replac
layers
algoritmos
combinação
saib
percebemos
cozinha
instalações
esforços
recuperação
cycle
noutros
steel
Amazónia
fisicamente
barrel
barreira
paralis
eficazes
1945
prosperidade
prosperity
provided
equili
dignity
abertura
breath
teenagers
neighborhoods
Sahar
XXI
fibra
inevitable
About
galaxy
Quantas
raramente
unlike
injustice
##edded
estabelecer
contribute
algorithms
afirmação
functional
Smith
Lembram
##known
heavy
drinking
largely
encoraj
símbolo
concluir
diagnosed
infraestrutura
crack
crops
gentlem
parceiros
nucleares
Micros
elefante
refriger
ambiental
introduced
cocó
protótipo
uncomfortable
acrescent
Jennifer
porcento
corrigir
gasolina
agulha
distúrbios
Missouri
Significa
Sarah
bathroom
cabeças
wisdom
liquid
mamíferos
Henry
imigrantes
authentic
cilindro
August
núcle
schizophren
sophisticated
Cochrane
VIH
antepass
Ushahidi
Uganda
grátis
HeForShe
esquizofr
31
Atualmente
Bh
Bet
Cre
Dá
Far
Gree
Gold
Gosto
Hel
Lim
LOL
Mac
Make
Pap
Sor
Six
Tog
Turn
Wa
Woman
XI
aço
ble
bum
bird
dancing
gira
ganha
lens
lind
lady
nations
nurs
nód
nodes
pude
rir
rico
rating
raw
rurais
sente
##dney
##rb
##ax
##uamente
##time
##pes
##house
##gly
##ícula
##õem
##MU
##EC
##erk
##enções
##arter
##arial
##inction
##aly
##itárias
##icious
queix
inject
##ecess
##ecida
andam
island
pareça
reac
reje
reutiliz
##quia
alar
##oded
##ulated
exposed
style
acha
esgot
pratic
chor
perna
verbal
trig
output
##usa
Social
deserve
##gueira
served
##oga
arco
contamin
coer
preench
##ciação
leap
plenty
plástico
impul
button
##aint
recru
spinal
spring
spiders
##ilhões
infection
colo
diet
criativa
falámos
relia
##harm
##intos
nowhere
poema
pensado
pensaram
##cular
thanks
intim
intact
genius
casar
poderosas
precisely
sentar
boat
Algo
##ísica
insurance
instante
evening
caminhos
flash
fluctu
nasci
extr
guitar
confidence
metáf
centuries
scre
profissional
190
193
writ
writer
computing
computação
milk
bases
exames
##aker
##akes
poster
continente
movies
movimentos
root
Emma
organic
organize
interessado
conhecidos
digest
limpo
limpa
pedi
pedido
germ
causas
calc
projectos
acabaram
Acc
populations
painel
aparentemente
aparecem
cujo
universes
##mago
trabalhava
próximas
literature
literacy
operar
operação
Ens
additional
allowing
Conor
warming
keeping
observação
tentam
tentando
environments
produtividade
mapear
intelectual
ignore
matemático
capitalism
capitalismo
prepare
cresceu
competências
staying
suficientes
comprim
emergency
##ography
separação
felizmente
acreditem
oxigénio
Coloc
bolso
apartment
roda
navios
##attle
troc
leadership
combination
saiu
aspir
compreendemos
delivered
flowers
envolvidos
surgir
povos
##ulsion
avaliar
componente
transparency
voluntários
financeira
occup
rocket
prostate
latest
linked
reverse
reverber
flexible
methods
finger
heroes
electronic
multipl
impedir
galáxia
romance
veteranos
contrato
removed
Sydney
deficiência
burning
paradox
reviews
Palestin
tatto
configur
prontos
espetacular
chimpanz
ocorreu
swimming
expertise
desistir
dinâmica
Audience
escaravelho
Denis
season
europe
múltipl
fêmea
Ethi
bicycle
mirror
welcome
jealousy
hungry
muçulmanos
##abinete
saneamento
aborrec
Número
êxito
XIX
metáfora
29
48
64
AB
Abs
Bell
CP
DH
Ext
Gra
Gene
HA
Haw
Jim
Kar
Melh
NL
Nesse
Power
SP
Senh
Serra
Van
Vene
bang
banda
cents
fan
fum
gosta
honey
icon
jur
north
pom
pilh
pestic
rats
rostos
sir
sig
sag
ts
tor
tick
tape
velhas
velha
wrap
##neg
##ebol
##rans
##ioc
##mica
##miss
##ck
##cura
##zero
##ya
##Bits
##LS
##ôs
##enos
enable
##onham
##ision
##ading
##iciais
appe
quotid
##eding
##elos
anda
##etical
##iações
##imal
seeds
parques
##irds
##igen
reject
aside
convey
##sey
##lywood
anest
Things
embr
##istos
##unami
proje
proof
##verts
##iff
pron
primos
prémio
perpet
tricks
trucks
tridimensional
podes
outs
##guer
fright
soma
compete
contam
contín
agências
previsão
carp
grid
impre
traged
interrupt
clothes
##berry
evac
colony
colónia
diariamente
adiv
advers
sementes
##redores
##hea
crimes
pensavam
destin
polin
livrar
precisávamos
sentidos
oppress
acontecem
informáticos
Compar
flour
menino
202
histórico
centrais
seca
melhoria
scenar
distant
distinct
195
regra
natal
download
futebol
##ânio
curric
ficava
Parl
##verno
idosas
levado
existing
presa
filter
2003
deixam
helpful
courses
exceto
conden
descont
chegamos
globalização
sincer
drill
clarity
morrem
montes
proposta
sexy
grau
##ómica
controlled
acabámos
trials
collapse
colocá
fasc
##hips
piores
partilhada
universidades
choque
classic
embedded
2016
portra
plantar
Sabe
Sabes
Rezero
directamente
##ucky
utilizador
lembra
ultrass
figuring
bloque
battery
Mario
##údio
expressões
exploring
tirada
extraordinárias
esquecer
fluoresc
joke
perdemos
eficientes
eficácia
explaining
ingles
measuring
determinar
Esses
inovações
Show
##iminals
invisíveis
fascinated
##rogen
profundas
raising
textbook
summ
falls
falling
Carneg
critic
estimul
apartamento
liked
descoberto
1984
##rabes
involves
estivessem
Voy
Coke
louco
louca
habitats
revelar
ganhou
sofrem
argumento
sustentabilidade
pinturas
angry
câmaras
delivery
apresentação
colaboração
jornalistas
estatísticas
vulneráveis
prioridade
originais
celebrate
Bruno
restaurant
reinv
reinvent
collaborative
prisoners
burden
Swed
cosmos
aumentou
Movember
Movembro
exhaust
Latina
rarely
poupanças
Faiza
famoso
journalist
desloc
Virgin
entrevist
tatu
encourage
pairs
exercício
cardíaco
nutrientes
caiu
empreendedores
shelter
símbolos
microfone
Vivian
barbear
Joshua
Sandy
lâmp
wireless
##óxido
coincid
appreciate
Diego
StoryCor
newspaper
uncertainty
Titan
enemy
Until
cêntimos
Foundation
negoti
Mohammed
Microsoft
Together
Carnegie
StoryCorps
Ach
Bu
Ban
Back
Ca
Cer
Doc
Duas
Eti
Four
Fomos
Gar
Hal
Il
La
Líb
Met
Maria
Pac
Rw
Rog
Sen
Shar
Yale
Zim
ain
aus
bate
bimet
cães
cigar
dura
dental
fill
fusão
gam
guns
gang
gabinete
ilegal
lago
nur
pura
pharm
rice
tas
tio
título
ward
árabes
##ni
##nected
##eas
##rong
##rina
##uis
##iance
##ijo
##met
##pi
##ptual
##cus
##cats
##hada
##bun
##bilidade
##ând
##AA
##OR
##ES
thin
quit
enri
envelop
##asma
##ini
##orde
##ati
theater
##omach
##amental
##stata
##adies
##icher
inund
##eline
##idents
##uts
##ilho
##ilty
##etch
sep
dopam
estamin
##irmos
##igração
youth
reef
##avera
##acit
##ereço
##umes
mega
##pled
atl
pormen
chá
verificar
imigração
desag
nações
peak
##illance
shut
likes
library
compras
contest
agentes
agarr
parties
resulta
caras
gran
granted
entram
justo
Estud
reco
##aired
unus
unknown
seek
seeking
##iox
eventos
colect
diarre
eleição
##ordo
##ordial
assuntos
queres
##ega
falso
falei
matri
relate
passámos
consig
##achel
wherever
sabor
##ctica
transg
transit
##appy
trabalha
intenc
##inações
##iceu
march
casc
primordial
precision
acontecimento
insc
insul
instinct
informal
cameras
littleBits
Devem
##jevo
guid
próstata
##roph
redução
entreg
demora
visita
register
Podíamos
Stew
subway
miner
personagem
ficarem
##akers
existed
duplic
equation
preso
exped
fizer
fizesse
penis
deixaram
estarão
estarmos
mala
organizar
condução
##ónicos
larga
globalization
permission
drivers
violenta
International
souber
##ratic
ligam
ligadas
programação
ambigu
limpar
limitações
pediu
funding
receitas
sexting
sexuais
fotógraf
generated
horse
horrible
##éticos
praia
##racção
localização
refere
Argent
ocorr
cabos
acresc
plays
util
appropri
potencialmente
seguras
robust
##whel
embarr
foco
Simples
walks
radi
extremo
extrema
Revol
pareceu
empol
laser
documento
Design
naqueles
matemáticos
preparados
cresce
cresci
inventor
1990
focusing
automóveis
voters
engineer
mentira
calcular
epidemias
farming
amounts
orgulho
currency
bolas
bolha
recognition
tension
reparem
diverse
técnico
branca
Within
loucura
deadly
suicídio
suggesting
increases
increasing
lifesp
entendem
emails
logic
##vasive
subjects
terríveis
1970
bilião
damaged
permanecer
Fazemos
instalação
ameaças
pige
transferência
determinado
adolescente
cego
concepts
footprint
dramatic
folks
translate
brinqued
fulf
sanita
instantly
costumavam
category
excelentes
struggling
conclusion
flexível
licenci
amarelo
Polo
Hollywood
snow
placa
reminded
Criámos
vantagens
racioc
Presidente
circuit
borrow
contribuir
circular
efforts
spiritual
obstac
##ederal
Descobri
incomod
incompl
obesidade
mixed
raios
ancestors
globally
traumat
physician
##know
imensos
imensas
reveal
Babylon
desperdi
chimpanze
intervenção
corrupção
anteriores
anteriormente
neutral
privileg
instructions
autocarro
renewable
tweets
desconhecido
cartoon
excitante
tijolos
conexões
vencer
underwater
mágico
neurolog
Setembro
inacredit
oyster
arroz
biblioteca
abrandar
Ruanda
cybercriminals
Sarajevo
frozen
Gandhi
incorpor
crédito
farmacêut
screens
Denisov
tsunami
enriqu
estaminais
embarrass
42
47
74
96
Aut
Bron
Bolt
Cash
Chern
Dais
Diss
Er
Gowan
Hon
Hind
Kh
List
Mah
Neg
Nações
Nessa
Pela
Sund
Tinham
Tanz
Und
YR
ber
banc
dat
duck
fallen
férias
gor
gay
gém
hang
jar
lê
lunch
liceu
nom
nano
orel
pill
pause
pace
rip
sáb
sculp
tig
ugly
wider
yield
índ
ódio
##no
##rir
##rade
##low
##iadas
##mp
##mates
##hl
##vens
##zmann
##bag
##ía
##SP
##TS
##esis
##ariam
enh
##otter
demos
##ematic
##itando
##itava
##icking
##iciosos
##ington
##ilia
##etically
##ollo
israel
parou
parking
estabilidade
estúdio
revis
##uridão
##ulado
##tero
stations
static
stability
ate
ativos
##adequ
##izou
##izamos
##opart
chat
chron
church
havido
##ocking
veremos
tran
##ensar
outcome
Soci
desped
notes
##earch
##ogen
shar
shit
##vely
disrupt
partida
carga
grades
plug
Estavam
spark
uncle
escape
escuridão
Ins
dieta
dióxido
humilh
criei
eleitor
worlds
donos
falt
Entre
teatro
##pth
##through
##ctic
invenção
medula
marry
genomes
genomas
genéticas
ecology
overwhel
consegues
conseguiam
conseguiram
diab
##íssemos
inser
insec
vocal
informática
bless
blank
iran
camiões
construt
meninas
Dez
##viol
extinct
tornarem
champ
chamados
##ffect
encontrado
sól
##areza
scores
factores
distor
distante
Isa
patr
native
##ânicas
miniat
curar
curta
autism
autênt
energética
helic
existiam
filoso
Embora
deixei
estariam
barr
funcione
##kesp
virt
defesa
excess
excesso
invested
investors
##ónio
Esqu
negras
Todo
believing
voo
pedimos
slides
fundação
perguntam
recebeu
continuava
attribut
Prémio
rising
generous
selv
grain
graça
tradições
fiber
behave
ocor
quantit
quantidades
basta
painéis
vivia
fáceis
partilhamos
partilhado
sensores
houver
operações
singing
glor
targets
##ímetro
picking
públicas
achava
Real
significava
Lee
objective
##ótico
interna
domínio
pudemos
correio
dispostos
pression
naquilo
quaisquer
expressions
represented
activist
activities
fluid
perdida
cute
influenced
rápidos
aston
complicada
Should
preocupa
preocupação
preocupações
económicas
epidemics
acreditava
cadeiras
haveria
ignorar
demonstração
hyper
seduc
mundos
breakthrough
Harry
incluir
emotion
resistir
recognized
vendas
campus
Antár
americanas
##vertidos
guarda
1989
referência
magnitude
purch
expanding
Coach
motivação
cognitivo
kilogram
independent
ganham
narrow
shoot
angle
retirement
escritórios
Conselho
instrument
cozinh
espantosa
Conseguimos
reunir
diretor
adopt
microbial
nanopart
assumir
financeiro
achieved
senhores
desenhos
roubar
acontecimentos
básico
categoria
immediate
license
Holmes
corporal
divided
##hhhh
manipular
graduated
luxo
circuitos
teenage
carrying
errados
reduced
inevitável
spoke
poupança
órgão
obstáculos
apontar
Democ
##edding
framework
obesity
clínicos
surrounding
surrounded
tecnológica
trends
suporte
lavar
acessíveis
ecossistemas
exercícios
beetles
renováveis
desperdício
Atlanta
julgamento
##esterday
tragédia
privilégio
antibi
senão
autocarros
craft
split
sujeito
possuem
multiverso
multiverse
prolong
Odys
crash
empregados
forgotten
marginal
prototype
smartphone
hambúr
definitely
refugees
Eventually
Econom
judeus
browser
tackle
proportion
contrary
Funcion
pecul
centrifug
efetivamente
morcegos
airplane
Honduras
Hannah
Marduk
Síria
Stux
Skype
chocolate
ultrasound
antepassados
Absolut
tragedy
Voyager
Etiópia
recovery
empolg
Bronx
Boltzmann
Daisy
Gowanus
sculpture
37
77
85
BB
Bel
Bra
Bush
Cin
Core
Call
CMU
Dou
Desc
Fant
FDA
Gre
Jose
Kenn
Li
Mon
Mike
Passe
Ris
Rece
Sam
Southern
UN
Vivemos
Zero
bail
cimento
dust
fusion
gases
hunt
hug
lapt
node
nelas
pad
pum
pend
pico
ram
richer
sper
sits
sisters
turb
uplo
ubi
vistos
west
zang
##name
##rot
##radas
##lines
##aqu
##iety
##mal
##mad
##mel
##pp
##fal
##fortunately
##graph
##úm
##ws
##watts
##ênd
##erd
thrown
##arias
enl
##isc
theor
##otes
##alho
deitar
depth
##itous
##itual
##itudes
##adic
##ician
apt
apple
ink
oficial
coma
comemos
comédia
##utan
##utch
##raction
##etra
##eticamente
##olis
doors
estil
reagir
##quear
##urados
aler
alimento
alvos
conqu
##ulhar
makers
emit
##riamente
exib
stack
##izações
porcos
nose
prices
##opy
##opes
##ague
supr
##orthern
verific
goals
##children
##guem
naked
peers
frank
shirt
compress
##ello
##elled
caros
careg
lean
plasma
##antee
##brid
Estive
recess
recém
recicl
spir
clon
clique
##pring
##ipos
escapar
escultura
Invest
saem
infected
diâm
talento
##orden
háb
donor
teus
estações
relatório
imaging
passive
afeta
crenças
respiração
encol
possivelmente
##plex
precisavam
novidade
overcome
diapos
captar
blast
procrast
##centure
verdadeiras
##atively
começarmos
extensão
guar
guide
guilty
confusão
explica
devagar
demorar
lets
comments
patentes
##ishment
##ugar
curv
salto
saltar
##ína
energias
valid
economistas
Unidas
Unfortunately
levaram
##iracy
equação
presum
presença
posições
studio
hearts
penetr
acts
ending
baratos
shoulder
construídas
tests
resultou
farmer
##ancas
conhecimentos
digam
pedras
causing
sexta
elected
buses
tradução
ilha
transformou
juntam
aconteceria
morta
costas
aprende
publicar
Accenture
combinar
utter
acredita
healthcare
potável
collagen
aparência
sono
universities
##while
classes
conversar
News
Newton
literacia
headed
resolution
aplica
breaking
achei
photographer
observation
empenh
divulg
tentámos
possibil
sustentar
audio
personalized
correu
immun
legit
versions
visualizar
participation
competir
90s
sequências
perdi
fears
beautifully
inventou
conceitos
sentirem
emergência
separation
urbano
maravilhosas
Nothing
inspirar
alimentação
taxas
geomet
evidências
textos
currículo
truques
Israeli
Antar
branches
Donna
miser
##archy
vermelhos
químico
collecting
mistura
floating
vulgar
raízes
alternativas
loucos
descrev
reached
nutrit
nutrition
winter
produzem
nariz
shooting
sustainability
cidadão
threats
lançou
mainly
properly
instruments
methane
permanente
##rafia
##ringe
component
intervention
scholars
recebemos
gratidão
adopção
adoption
photographs
Gostava
ridicul
description
escritos
affects
Brother
pilot
detalhe
pirat
Anyway
candidate
nascimento
entusiasmado
Saúde
explicou
aviões
errors
horizonte
incentivos
Chamamos
abundância
turma
Poderíamos
irmãs
Japanese
professionals
estratégias
millenn
apaixonada
empowering
vasto
Natal
Syria
tropicais
anatomia
quartos
acompanhar
paradoxo
falsa
##íssimo
Russia
telescópio
Instituto
cegueira
##itzer
##amentais
recomm
navegar
paradig
congel
antibiot
detetar
chineses
immigration
dupla
Turk
gordura
francês
analyze
satellite
episód
doodling
correcta
navigate
announced
doloroso
prisioneiros
luxury
nalg
stroke
chaos
antecip
tópico
Domingos
herself
established
vigilância
doutoramento
ontem
conclude
schizophrenia
esquizofrenia
Bhutan
LOLcats
Sweden
Roger
##buntu
unusual
diarreia
##ematician
miniatur
peculiar
Stuxnet
ubiqu
frankly
33
46
84
AK
Bil
Build
Bali
Bonica
Cle
Cres
Denn
Dentro
Grow
Hans
Hosp
IS
JB
Jud
Juntos
Luc
Lego
MS
Mont
Night
OP
Oly
Pou
Public
Ross
Rio
Rús
Spe
Sinto
TK
Task
Water
bizar
bancos
cópia
dores
ere
gro
mama
móveis
neles
nerve
pav
pour
pitch
ri
rica
rect
rios
rail
tast
tie
viam
vistas
wo
wol
yesterday
zonas
##uate
##iou
##mat
##mst
##pass
##corn
##hand
##zens
##yers
##bing
##fa
##fos
##far
##fei
##fus
##wl
##NU
##EA
##12
enfor
##orro
##anger
decent
deprim
##itou
##ituc
##itious
##amas
##aming
##icção
inadequ
##elly
comfort
comedy
##ilas
##imentar
dobro
dogs
dozens
estô
##irma
reh
repos
whis
##urada
##ulum
##ulating
emer
embal
##esto
##estre
##riu
accent
aceder
acknow
##pler
##auso
abast
abelha
##cies
##kept
##agn
##agger
##azes
##ocal
##ortion
cans
neither
##ensas
outer
##endas
desk
desast
desenc
##gura
##ostum
usaram
shy
sombras
Its
elog
##ntown
contains
lojas
lovely
##quez
agencies
resc
reside
difusão
ought
Mass
Maslow
amo
amino
traject
recre
interação
interrog
clue
clicar
clareza
theme
White
safer
saído
whenever
diária
diarr
adot
##êssemos
##ibiliz
talent
criadores
eleitores
actuais
Porém
falha
mostrado
relative
passen
##heu
corals
consiste
##aches
##inton
##apping
brid
mode
socioec
Seven
Após
possess
chances
primatas
sentada
##obyl
captured
blow
gotta
artwork
começado
204
tornando
##aterr
chamava
herd
metano
experiencing
letting
scream
formal
formato
visuais
factories
profissão
disturb
Isn
planear
regard
regresso
remix
Stud
curs
laid
economists
located
owner
owned
existentes
avanço
presas
positions
progred
2002
roots
percepção
##ilege
ajudaram
defense
##icted
organism
organismo
organisms
condicion
oldest
engenh
engagement
bombe
supermer
morality
conhecia
ligu
neck
limp
receita
receiving
continuamos
propose
sexos
selection
motivos
processar
processamento
traditions
mortal
professora
produces
lighting
baixar
Ambos
baseball
tomada
Exper
situations
trabalhado
netos
pontuação
armad
embar
glue
origami
medication
##ímetros
aprenderam
breast
multidão
advance
internacionais
##ísta
##ístas
perceberam
bats
vaccin
mathematician
depending
esquec
Europeia
Ell
terrorist
improv
encontrou
sequences
stays
Trade
envolve
##ventude
measur
1995
1991
astero
emergentes
calculate
surpreendeu
demonstrar
Colle
variáveis
paciência
texts
venda
fatal
jornada
jornais
performing
Usamos
transmissão
stranger
balls
guardar
1980
reference
cirurgiões
establish
suggested
approaches
ensinou
##ígenas
lançamento
instrumento
Indust
tablet
surgiram
colaboradores
pigs
components
Recentemente
judg
nanot
financeiros
proporcionar
dramatically
senhora
partícula
descrição
noutra
panel
desenhado
links
quadrados
restaurante
Archimedes
printed
Suécia
manipulate
específica
Egyptian
Robert
administração
breathing
breathe
impressionante
cooperate
Encontrei
reduction
spoken
agradecer
agradável
incentives
electrical
gostaríamos
unlock
intensidade
Freud
Mexican
golden
journalists
lucros
mergulho
roupas
clínica
Christmas
tropical
anatomy
insights
occurred
ancestral
entrevista
physicist
Lembr
telescope
display
solidar
Kepler
Berk
corruption
Jews
Jewish
title
infraestruturas
aterror
rocha
extension
budget
hackers
shifting
idênticas
##hyth
shocked
fabulous
Scott
francamente
aggress
aggreg
plateia
concerns
ascensão
foguet
Muslim
Muslims
Nenhuma
Shakesp
smoke
distinguir
satélites
golf
Stephen
settl
occasionally
Rosetta
assegurar
arbit
túnel
apparently
egípcios
Associ
absurd
preconceitos
surveillance
telephone
NGOs
coraj
ângulo
anxiety
fortunately
Open
igreja
begun
dúzia
Saharan
Ethiopia
reinventar
Cerca
Rwanda
Zimbab
bimetal
tasks
Argentina
acrescentar
Chernobyl
diâmetro
ubiquitous
Olymp
Rússia
TaskRabbit
##itucional
Shakespear
44
76
Aí
AG
Aos
Ast
Ajud
Abra
Bus
Bear
Blo
Bla
Del
During
Física
Has
Hud
Half
IB
Ian
Lou
Matt
Net
Never
PTS
Rachel
Son
Ty
TE
Tam
Test
Tell
Tah
Trad
Vol
Vinci
Wi
XV
aé
bold
cativ
cath
dys
diox
fart
fract
hes
hél
hanging
irei
lag
lento
leste
mart
móvel
pater
rib
ríg
ritual
sink
sne
sota
tento
ties
tela
tím
tutor
vinha
vitam
wired
##die
##ey
##raram
##rated
##oh
##iço
##mart
##pite
##ket
##ói
##íaco
##MA
##eng
##arinos
##inada
##inária
##anish
##onância
##atal
##isão
##itá
tow
queiram
apo
apelo
##inga
inver
inoc
initi
inseg
##eday
##rov
##utical
##iled
##ilares
##eton
##imir
sejamos
parks
estic
##iramos
##quete
##soever
alco
conter
##acher
##seus
former
mape
mago
Third
##teries
acons
soar
esque
ativo
osso
##izza
##oporto
chair
##agree
##agénio
subl
##azer
vermos
##udio
whatsoever
frances
frigor
orden
shall
myster
ard
arsen
compelling
lobos
disgust
agl
leverage
trajet
interfer
intercon
spr
spra
upper
Whether
escav
espanh
espelho
infec
inflam
cola
colagénio
ades
adjac
adiante
talentos
criativos
obese
asset
incon
falhas
teorias
cerveja
passados
##inte
sabes
sabendo
poeta
##apped
bron
##ficiente
invention
intent
intention
medos
medicação
##pread
happier
marcar
margem
genético
induc
grandchildren
Albert
insetos
capítulo
bla
##eps
seguem
mudado
mudei
##rick
extent
confused
meteor
pale
encontros
##ésia
pato
##ugal
##ugment
escolhemos
##frut
subtle
minas
salário
autoc
smarter
avós
aviso
movements
reproduc
Emp
percebe
barbers
ajudá
Mundo
educate
educated
excell
condoms
accum
esperam
globalmente
superfic
soube
norma
ambas
montar
continued
Princ
selves
##athan
##ílio
traduzir
empresários
transformed
homework
Around
edges
combined
producing
ansiedade
painted
toma
tomato
earned
senses
sensors
merecem
privilege
revoluções
revolutions
Similar
warning
imagined
Really
significativo
directions
experimental
legacy
defined
civis
Desen
desafiar
gravar
versões
visualização
transportar
##identais
representation
dirty
monum
lawyer
satis
actividade
crescem
frequent
terrorista
terrorists
cortes
perderam
promover
##culosis
voltaram
ruído
failing
measures
astrónomos
garagem
garraf
pesquisar
landing
calculating
Beach
enviou
Outras
maravilha
Veem
Vejo
darkness
responde
profundidade
preferido
diversas
pôs
reparação
reflection
Moz
quarters
slowing
apercebeu
bottle
branch
Spanish
request
Irm
Começa
estabiliz
blindness
trocar
##vements
predicted
typically
populares
reactions
motivated
ensinam
Africans
robotics
altogether
cuidadosamente
1970s
entering
pegada
derru
survived
fabricantes
azuis
villages
remarkably
dominant
translation
ótima
##arteir
avançada
Plan
piloto
perfil
Arabic
integrated
pushing
paraly
safely
collaboration
Holanda
nuvens
sobreviventes
dividir
fingers
harbor
monitorizar
divisões
entusiasmante
gathering
hormone
assembly
Senti
brothers
multiplic
secundária
cultivar
orientação
eletrónica
temporal
horizon
aleatórias
veterans
Façam
symbols
desempenhar
December
chemicals
disappeared
procedure
procedimento
strategies
admitir
strip
spectacular
tribunal
quarta
cardíaca
lesão
excepto
cryst
brutal
##culpem
secrets
tuberculosis
ostras
uniforme
Obviously
biases
chinesa
suitcase
shopping
incapacidade
legislation
department
undergrad
bosão
flew
tanque
advogados
hiper
inimigo
inicialmente
satellites
Nenhum
anúncio
anúncios
pione
cobertura
sports
britânico
brincadeira
academic
article
minority
generosidade
trustworthy
Matem
Valley
##believ
psiquiat
catastrop
philosophy
desporto
desconfortável
agrícola
comboio
inequality
dívida
Arquimedes
desigualdade
portátil
estrangeiro
saibam
gentlemen
Creio
Sorry
writers
múltiplas
scenario
Stewart
lifespan
Kennedy
Passei
Hospital
estômago
diarrhea
Industrial
Shakespeare
Hudson
PTSD
dioxide
AM
AS
ALS
BC
Bay
Cir
Cria
Coun
DM
Dick
Desta
Dutch
Fi
Gi
Hy
Hiros
Hubble
Jones
Kev
Kiber
LED
MM
Mult
Mob
NT
Nic
Nick
Pan
Prop
Públ
Peter
Ret
Rica
RNA
Resp
RNG
Sin
Sons
TR
Tel
Turing
Ult
aust
augment
bip
bated
bale
cous
cach
cage
cock
dit
dando
drew
eB
eras
fed
fog
federal
ham
ic
jap
kitch
lung
mate
nets
obl
pound
pesc
pump
põe
rol
rig
rational
sque
sond
sentei
skept
tears
vice
vias
wires
wedding
ínt
##nels
##rom
##rich
##uel
##pers
##cast
##yram
##kind
##xit
##éu
##émos
##ób
##írem
##DE
##TO
##VC
##eral
thirds
##esas
quarteir
enx
ench
enables
##anies
##onna
##otion
##ouro
##alm
##alas
##alog
##alian
deploy
##nda
##eman
toy
apert
##ecidos
##ecendo
##raft
parl
dow
doce
estím
##irty
reint
rebo
reino
reorgan
reaching
##quim
asks
album
conto
##antly
##sea
forç
mainst
mails
##estone
meal
##tering
export
beira
proposed
stake
acidentes
##ifes
soc
atitude
athl
##abul
##abilities
abuso
abrang
prender
sugar
perde
##azi
canais
##endar
desfrut
seremos
seroton
fruit
argu
array
compens
elabor
##pera
contou
agente
partidos
##atever
Butão
##assa
lever
##uct
##arta
recy
intervent
spin
spots
cliente
clube
une
unic
unpre
unbeliev
Whit
Whatever
evil
espre
facility
infidel
##oved
adren
##ousing
##idepress
##arda
obed
assets
incident
simplic
dono
relax
##ondo
##aceutical
afro
transações
destac
Sejam
##under
buying
março
indire
primate
primarily
solares
solucion
opens
Alice
insult
Chaz
camião
segue
seguido
arts
artistic
Deb
Dever
extinção
tornarmos
decrease
guia
metric
##eley
tired
entrei
demands
screw
profits
distantes
remot
patri
patience
Star
protected
durar
smile
smoking
ido
levá
duro
##phas
presc
posters
homic
##laim
lágr
governamentais
repór
funcionamento
educar
investimos
bike
pointed
permissão
##pressão
supermark
restrições
##rator
normas
programming
sucess
receive
Prince
séria
speaks
desenvolveu
##afa
hardly
conventional
fiquem
refeição
player
evolve
Doaa
Exército
sonhar
##what
Anna
trabalhamos
trabalhador
embaix
muscle
religiosas
sidew
resolve
filmar
pasted
acert
significativa
significativamente
observações
identific
Clay
paga
challenged
conseguiria
admira
favorites
figura
Ouvi
audi
segurar
bloquear
charges
dispostas
físicas
definir
##uba
vaca
Marco
visualize
habilidade
diriam
monkey
ouvirem
matemáticas
altera
esquelet
copiar
depressed
conjuntos
crescente
participantes
frequency
##órd
stepping
behavioral
promised
alturas
implant
80s
connects
Olha
Ador
Toy
speaker
70s
emerges
tubo
separar
aperfei
##brais
officer
approved
##ashed
integrar
longev
archae
etiqu
Columb
Mostra
##rogénio
illumin
morrido
atingiu
comparar
dedo
susc
suspect
expectations
circles
estimate
estimates
técnicos
associada
vermelhas
Irá
científicos
navio
surprisingly
troll
opiniões
estivéssemos
mathematicians
gastos
independente
protegem
prestar
limitado
atividades
##cientists
Escola
moralidade
threatened
Camer
lançámos
survivors
autoest
soldados
caracteres
característica
iPad
iPod
isolated
diminui
transparent
dominante
bordo
ampla
photography
assumptions
proporção
achievement
priority
##critos
divertir
noutras
pertence
surgeons
##rói
counsel
originally
receberam
evolutionary
agricultural
básicos
Ocidental
sintet
libertação
pollen
pollution
cerebrais
pushed
infinito
análises
atrair
burst
buried
Anybody
candidatos
applying
Segunda
vasta
Janeiro
afectam
registos
hormones
Sentia
comentário
mexican
erradas
afetar
Dizem
bateria
repeated
petition
resilience
Espec
músicos
músicas
biomol
mecanismos
vasos
Secondly
Schw
contempl
beneficiar
Virtual
financiamento
suportar
McC
McD
planeamento
Acabei
segredos
externa
Talibã
grasp
diagnosis
Walmart
assignment
detailed
ostra
ingredientes
Williams
throwing
Tunis
duplicar
escaravelhos
boson
volunteers
acolh
shrink
assassin
hydrogen
smartphones
mammals
culpado
Philip
rabiscar
pólen
tangible
típica
##ETI
disabilities
satélite
Mulheres
fechar
##ihad
ownership
Education
Mountain
Nigéria
Nigeria
celular
fórm
álbum
Saturno
emprést
interacção
obcecado
poluição
murder
barrier
Ocean
telhado
inconsist
advocate
prevenir
Eastern
estacionamento
pregnant
gráficos
clássico
silicone
Neanderthals
académico
County
parceria
transactions
marítimo
horizontal
Brexit
faixas
vessels
interfaces
slogan
núcleo
Greek
recruit
reliable
extraterr
Veneza
adivinhar
Listen
Under
##SPT
diabetes
filosofia
Coreia
Cresci
wolves
emerge
Lembrem
Berkeley
Association
IBM
Tahrir
aconselh
aglomer
Princeton
Matemática
Council
Kibera
repórter
esqueletos
aperfeiço
43
52
900
Ara
Aime
Bat
Bol
Bag
Bubble
Cra
Dave
Hat
Hot
Haz
Home
IP
Lar
Lut
Less
Lau
MO
Mur
Mant
Méd
Meu
None
Nether
Narr
Oct
ONU
Person
Rap
Sala
SETI
Ten
Vá
Wol
Wave
bust
buck
cog
cope
croc
dê
dating
denso
duração
east
eco
echo
fate
gama
giga
hect
jihad
kiss
mód
multa
oeste
pist
pix
pânico
powers
pizza
rug
rang
rub
russ
rhyth
sorr
saco
tê
tear
teto
ving
vila
vigor
íc
##nos
##nut
##oj
##ubro
##tles
##iá
##iju
##cam
##cement
##hr
##hot
##hou
##hink
##hops
##ban
##born
##bage
##úb
##úrg
##xima
##éricas
##íbr
##IA
##osing
##arões
enver
enigma
##inente
##intu
##orter
##onic
##isas
##otrans
##ouds
##alos
##stone
##stream
##adir
##adays
tooth
toxic
queira
iner
##idar
comand
##eccion
##roem
##roid
##iac
##olen
##olic
##igram
rew
reim
reper
alav
##ulose
anth
emblem
emphas
muro
beer
stam
stages
sticks
stomach
stolen
acções
##plan
atirar
##abit
##auc
##ceiro
chest
cheias
haviam
##heryl
trág
outdo
deserv
peguei
worm
usarem
useless
##illary
shake
lied
arrog
contag
terras
loves
dish
dismiss
disagree
agrup
##émios
cares
grão
##cover
##coço
Estás
trail
spac
spher
estát
clouds
manus
unle
unir
Inside
espirit
somewhat
facilidade
facilities
##ouros
colhe
column
##ologically
humil
criados
criador
criatura
##ordinar
Young
falava
teia
passage
corret
crushed
whereas
transd
bricks
respirar
essenciais
modos
invite
intenções
twist
Seja
genu
ecl
ecologia
ecological
indigen
primates
solt
conseguido
##uracão
Chad
persuas
underlying
segui
flies
flaw
##ricane
começando
2030
chamaram
Aplauso
guiar
antidepress
syringe
tirei
seco
formid
profile
distra
Islands
remained
##iversary
learns
Stop
proved
curvas
##ituais
##ituição
finds
laços
basket
ficado
Parecia
locked
##aked
##ighter
duv
equations
equações
presid
homeless
fizerem
percebeu
perceptions
deixamos
estará
retired
Muham
malu
males
malas
understands
educativo
deforest
sciences
investimentos
biológica
especul
creature
setor
largura
esperma
meme
nego
negoc
drone
##ancers
morais
conhecidas
ambitious
limpe
pede
slip
perguntaram
continuing
kidn
attend
attitude
estudei
highway
certific
ensure
deliber
calças
refused
projection
transformá
extraordinar
Aráb
Army
ocidentais
detecção
acabamos
tribal
edit
quanta
suppl
utility
colocam
skill
vivid
##érito
fases
pescoço
Expl
sounded
partilham
stops
ferro
privada
focados
Simon
##âmica
Connect
reasoning
multin
significar
Leo
selfish
observations
pagam
pagamento
utilizando
conscientes
consume
industria
tentou
favorito
modernas
documentar
debil
machos
graves
nights
mapped
mapping
estranhas
extraordinários
dirão
dependent
##idespread
preparing
productive
treating
objetivos
competitive
perdas
perdem
innoc
##orrentes
successfully
connecting
Add
dimension
procuram
procuramos
recording
cuts
ingen
inovar
inovadores
garbage
emerged
closing
complicadas
preocupam
innovations
dád
calculations
Beat
Being
officers
nearby
colored
mobilidade
adorava
culturais
aceite
integração
meetings
perspectives
inspiring
household
citação
pareciam
atingem
preferidas
virtue
attacked
Love
strongly
reflected
gradually
statist
assistência
assistance
estimated
Usando
químicas
##ioter
mechanics
mechanisms
magnific
relacionar
relacionado
discussões
opinions
raiz
Without
tumores
replaced
desaparece
curioso
curiosa
urbanização
gasta
institutional
descreveu
desenvolveram
robotic
despair
ativista
recolh
recolhemos
fornecem
entertain
oferece
pegamos
pegarmos
imediata
fraca
fraction
sobrevive
soldier
Fazer
reuniões
optimista
macaco
macacos
diretora
estatuto
football
crossing
dúvidas
council
prostitut
acontecia
instantaneamente
alimentares
anniversary
conservation
exception
saírem
Anyone
credibilidade
envelhec
envelhecer
corporate
corporations
randomly
coding
codific
cavern
harvest
gathered
péss
impede
aleator
dirigir
Aprendemos
clinic
##primir
fechado
exponential
Decid
bandeira
iniciativa
Devido
Demor
Frequ
Freedom
famosa
halls
ombro
liderar
empowerment
pisc
desejos
beliefs
appeared
Broad
frustrated
desapareceram
significantly
route
gratuita
external
renovável
widely
elétrico
elétricos
constructed
Atlantic
círculos
desespero
bicicletas
hidrogénio
tragic
mostraram
installed
ingredients
aguentar
hemisf
paradigma
neuronal
densidade
manuscrito
coletiva
sucedida
legislação
tweet
Islamic
advogado
tijolo
iluminação
pólio
smooth
disabled
chapter
adventure
contemporary
##icipal
confortável
generosity
trustworthiness
exhibition
emprest
interacções
vindos
transplant
programmable
Singapore
Singapura
previsões
Girls
Jackson
praticar
aventura
Naquela
engraçado
Conheci
biodiversidade
pausa
maçã
responsabilidades
Charlie
astronomers
Neandertais
Venice
Vietnam
shouting
espiral
efectivamente
ilegais
constraints
Turns
nurses
trigger
tattoos
curriculum
inglesa
tatuagens
pharmaceutical
desagrad
appropriate
Simplesmente
pigeon
fulfill
raciocínio
Sunday
datab
géme
tranqu
kilograms
sperm
estilistas
Antarctica
paradigm
apoia
Desenvol
paralyzed
reboque
mainstream
lágrimas
Aimee
Netherlands
##ijuana
espiritual
Muhammad
Arábia
350
66
92
94
Act
Ariz
ARN
BP
Cour
Cheryl
Du
Din
Dad
Ear
Ever
Ecos
Ebola
Effect
Ford
Ferg
Full
GC
Gall
Hong
Hope
Hello
Ken
Kin
Kent
LE
Learn
Labor
Mun
Mau
Mechan
Nations
Nairo
Paz
Pole
Parte
Potter
PSPT
Qa
Rain
Si
ST
Squ
Tens
Up
Uk
Vem
Vida
Win
Way
Wag
Wind
Wood
aç
bite
boun
dadores
darem
dates
dicion
diction
dancers
eros
firing
fumo
fôs
gai
húm
jit
nit
nacionais
nerd
ov
oct
pit
pse
puls
pyram
rul
rose
rank
ricas
rivers
tiram
torr
ténis
venho
watts
widespread
zod
Ár
áudio
##nic
##night
##necess
##eks
##rm
##rence
##unde
##uega
##hámos
##zo
##yard
##firo
##gic
##gio
##gras
##íso
##City
##BA
##AW
##LL
##FL
##osen
##osição
##enço
##arz
##ariana
envia
enrol
##asi
##asm
##inear
##any
##anna
##onald
theories
##otosh
##oux
##ouqu
##alis
##alhas
##itamento
##itório
##adel
##adura
##rever
##inger
inú
inqu
##ede
##eling
##eci
##ecom
andado
##roll
##utos
##raine
##ilónia
##eting
param
parada
parcial
dobrar
##ivot
estend
estima
reações
requis
##avio
alugar
conhece
##antem
forg
forçar
paraíso
maqu
##rium
##rição
exame
beam
proxim
nojo
stab
acid
acend
##pling
atom
##izá
##izando
##izadores
porre
prático
##opic
chosen
##agan
##agon
##agram
##ageiro
pervasive
##apé
verdades
neve
##uson
desa
deser
seringa
usavam
frust
shat
shops
someday
arrast
composto
##ellig
##ellers
contamos
contudo
terços
dispend
agent
prey
preenc
resign
resume
ouve
temas
tempt
leitor
plut
amigas
healing
##bruary
impostos
impulsion
traços
traits
recall
reclam
interp
clues
managing
unint
unidimensional
##break
##inea
##ference
evapor
##ournal
infet
infilt
colar
Quão
ader
adicional
adulta
workforce
criativas
tail
assom
assinal
querido
queridos
increm
Entret
relent
relation
relóg
##thur
poop
transf
moder
inteiramente
marcha
indicar
indiano
primata
precise
##iosamente
##uracy
diabo
instruction
capa
Child
informed
blink
blame
backwards
Comecemos
constitut
constroem
funeral
flows
artif
artístico
##bees
extend
decline
céus
milhas
tira
scar
scal
formou
visiting
Podes
futuros
##âng
subitamente
provocar
counting
sale
energético
milagre
valioso
Parker
examinar
owns
activo
deixado
##ilever
Mubar
educadores
construídos
defens
testoster
condutores
##ónios
##ónias
accuracy
chegada
creator
olds
negativo
eradic
bombs
superar
crew
programadores
programável
##versão
limestone
slums
montanhas
continuou
propriet
olhei
Prot
##iously
friendly
únicas
certificado
ensina
desenvolve
prag
botões
projections
handed
juntá
Arctic
Arthur
culpa
profession
controls
ocupar
ocorrer
costume
cables
deton
combate
terminal
utilidade
encontrarem
freely
neurotrans
skate
viviam
fárm
considero
Amy
##érsia
custar
basebol
##éns
Exc
cuja
partilhá
sensitive
pontas
armed
2013
merely
operations
Sabia
Sabiam
singular
origins
films
filmma
##ometer
Conf
observamos
Canal
Cloud
Clinton
tratado
Queres
tentaram
puder
187
remembered
##ossexual
legado
civic
debates
aproxima
November
visualization
passeios
killer
expressar
Peers
dependentes
dependendo
lawyers
joelhos
improving
difficulty
Trump
Yorker
prisões
implem
##orremos
ouvem
Adm
explains
servem
automob
automática
contraste
females
preocupado
preocupante
totalidade
innovate
calculation
substance
substitut
cadeias
balão
listened
Grécia
acordar
surpreendido
surpreendidos
feeding
Geographic
fascinado
Color
impacts
##cedented
atinge
atingido
diversos
gasto
incluem
resistance
recognizing
eaten
specialized
Carter
estimativa
psycho
Donald
Aquela
consequence
ballet
balloon
científicas
flood
magní
estivemos
autorização
alternatives
cleaning
drops
mutações
Photosh
lifted
entendemos
entendimento
sustentáveis
fornecimento
1979
enterpr
reports
reporting
reported
escritores
fraco
soldiers
flowing
permanent
apresentam
Fazem
tremor
suffered
colaborar
colaborativo
convencido
included
perigosos
diminuiu
macho
determinada
transparente
Blue
Recon
ampliar
adopted
enganar
accountable
divertida
##ytes
críticas
prosthetic
introduzir
variações
avanços
básicas
fueled
fracass
psicologia
iceberg
rolling
facilitar
pirâm
piratas
ouviu
ecrãs
fingir
Egyptians
simulação
aumentam
administr
administration
afectar
registar
circuito
cooperação
regularly
February
Imp
inferno
conteúdos
baterias
infections
infectious
demonstration
juventude
halluc
emoção
absorver
millimeter
lucr
lucro
desejava
Natural
viveu
deficiências
reproduzir
Australian
authorities
analogia
Somália
Basically
shadows
escondidas
configuração
nutrients
routine
glaciar
dedicated
Alexander
Babilónia
Disney
biof
gaining
secreto
adequada
litros
transcend
Saudita
cicat
##field
emocionais
desesperadamente
precip
àquela
preservativos
presidential
attractive
laughing
density
gelat
ringing
rocks
disciplina
coletivo
iniciar
elefantes
replicate
Odisse
perseguir
congestionamento
múltiplos
Fundação
revenue
vitória
conexão
chocante
cobrir
diagrama
Companies
puxar
Noruega
típico
desligar
ensaio
ensaios
Organização
consentimento
ocasionalmente
ética
retratos
besides
barriers
mandarim
##ográfica
Korea
Korean
junho
enviam
anónimas
namorada
Galile
Woody
hunger
válv
##hetics
##fitri
Soviet
terrified
Islão
storytelling
briefly
lacuna
miracle
Departamento
bamboo
enabling
precurs
synthes
Jordans
Popcorn
razoável
tunneling
rainforests
infeções
barrels
Papua
calcário
According
CPU
Hawking
appeal
flourish
ausência
envelope
pormenores
transgress
fotógrafo
inacreditável
Disseram
eleitoral
insecure
Isaac
astonishing
Antárt
antibióticos
BBC
Cinco
liguei
College
XVII
alcohol
bronze
eBay
kitchen
downtown
interventions
unprecedented
Cameron
Hotel
MOOC
Octavio
envergon
deforestation
industriais
dádiva
hemisfério
Arizona
Ferguson
Kentucky
LEGO
Mechanical
Nairobi
Qaeda
fôssemos
preencher
Mubarak
Photoshop
34
450
53
61
78
AVC
Basta
CD
Cond
Carr
Dra
Evol
Fly
Fif
Fire
Fox
Facit
House
Ig
Km
Lei
Later
Mer
Mem
Mich
Mira
Nest
Nik
Oak
Pers
Pai
RO
Ren
SA
Sad
Sac
Sound
Sure
Technology
WA
bis
cun
cats
ciber
cív
dano
ei
eólica
fits
fator
fuzz
fancy
gado
gatos
génio
heter
hitting
housing
junta
kits
lata
lift
lym
ladies
mum
mall
mante
mood
ous
ray
sar
southern
tight
tamb
tender
vib
vinham
Ós
óleo
órb
##rust
##rill
##rate
##rine
##oir
##sy
##ship
##away
##uits
##iade
##iene
##min
##mun
##mico
##hal
##host
##yma
##bu
##bul
##fing
##grafia
##úcar
##RA
##IL
##wan
##EM
##EG
thro
thumb
##aremos
##arious
##arquia
quint
##iné
##iner
##orse
##anim
##oura
##alor
##aldade
##alks
deus
deaf
deleg
##emption
##itate
##itados
##itage
##itable
##itively
##adi
##icon
##icil
##icting
toll
quebrar
apel
##ingo
inúmer
##elândia
oft
oficiais
##idou
##ecidas
##utora
##rain
##imi
##ols
##oler
parto
parall
estuf
##irts
reag
##quad
##urday
##acas
##acon
##aciais
##anth
##ulf
forec
max
Through
##uman
onc
meados
bei
beating
stor
stores
stones
stagger
acúst
acoust
sober
##essas
esfer
esqui
##places
atomic
porto
abilities
abriu
abenço
prato
##ciar
##keys
chairs
##agas
suite
suff
sufficient
##aza
canvas
verb
trash
tráf
##char
##child
outl
##usor
##using
desap
despe
desfl
##udência
peito
usámos
##illo
fren
fruta
oral
shell
shine
elite
contigo
loyal
##hobia
agency
agreg
reson
Butler
carác
impot
butter
##geous
traição
interc
interagem
realization
manch
manuais
unw
upside
##ipes
evang
evidente
Inici
espaciais
infeliz
cole
##ologicamente
diário
Quest
humild
##take
##ambique
assault
falou
tea
##onds
passavam
corrupt
transduc
brancas
modal
intenção
Seis
##onsci
##preender
bug
##iament
marks
casal
primavera
sentiu
Alc
Already
##action
##obi
##obia
conseguisse
insens
insane
capit
capabilities
Chamo
Change
Church
blowing
mudarmos
phras
mencionar
extended
tornamos
##aterial
deck
##ropolit
meta
metron
metrónomos
##ravés
syndrome
thrive
##issa
vira
##ítica
forming
visitas
distinction
usei
subida
subiu
subestim
provides
##geries
durou
lake
##ídios
basement
basquete
ficando
ficaria
economista
existiu
##ribly
presence
continentes
movem
fizeste
globo
repuls
perceive
endereço
barris
##édios
animação
Muita
defl
defec
powered
descend
##ructing
pointing
lasted
esperem
perme
engines
interessam
founded
violação
restore
restric
usarmos
publicação
limiar
pedem
rape
gera
moons
continuarmos
propriamente
olhemos
microp
séc
cirúrg
##étrica
printer
##ómetro
Através
culinária
companheiros
trips
couples
cheese
Going
Goering
colocamos
vivi
custam
openness
baseados
TEDx
tomam
Except
universitário
universitários
marked
sabermos
musicians
escrevo
privados
interestingly
glad
medications
##ímp
aplausos
paste
breaks
radicais
projetar
significance
elsewhere
amazed
Clicks
pago
pagos
utilizam
tratava
Joe
organizing
dissol
favorita
puderam
##orestação
charged
##ástica
airport
permitido
desafi
Twenty
gravação
girlfriend
passear
tirot
mentalidade
redef
confiante
activists
preparação
Justiça
saves
Trust
implica
##denly
Somebody
conceptual
voltam
Tempo
impressora
magical
influenciar
inovadoras
garage
apresenta
##enna
spends
separated
urbanos
votos
preocupados
landed
redesign
practically
supported
mobility
alongside
substância
baleias
farms
integral
integrado
surpreendentes
surpreendentemente
insectic
associa
##abbits
hybrid
communicating
salvo
inspirou
preferida
preferidos
paths
diversão
estivermos
risky
evidentemente
banana
Lovel
resistentes
expectativas
fortal
mister
Instagram
associado
dinoss
dinosa
1985
referi
cirurgias
predictions
truths
tumors
desaparecem
orders
psychology
psychological
Tommy
Voa
prize
telefones
destruída
motivation
architects
Centro
mutuamente
tongue
cognitiva
secretária
visitantes
lifel
Haven
argumentos
ativistas
crises
códigos
escritor
compreendia
Repar
imediato
soldado
blueprint
microscóp
envolvido
envolvimento
instalar
ameaç
reunião
convencional
rebel
detectar
entusiasmo
neuroci
amplitude
juda
prioridades
drama
accounts
panor
panic
panels
pertenc
translator
Teach
janeiro
ótimas
Media
variables
categories
categorias
perfurados
Arabia
boyfriend
integration
indicadores
peaceful
arrested
restaurantes
cantos
employment
africana
reinfor
apareceram
Iranian
abandonar
abandoned
History
Terceiro
Verão
depender
nascido
específicas
feminina
simulation
evoluiu
evoluímos
banks
novelty
division
Congress
Congresso
boring
hormonas
assemble
teenager
atravessam
Fez
hurts
losses
pulso
vizinho
phenomena
packed
package
fenómenos
sticky
terrenos
gostariam
juiz
wealthy
resiliência
iniciou
Devemos
Saturday
famosos
omni
##flow
intuição
Max
masterpi
altruísmo
imunitário
Christian
broader
kingdom
Patrick
analogy
Palestine
traumatic
escondido
trouxeram
revealed
abertas
glacier
ceiling
orbit
encorajar
habituados
horríveis
##onomic
intervenções
microflu
emocionante
emocionalmente
dilem
mostrando
parceiro
espectro
injury
renewables
dragline
pockets
prolifer
intersect
ambientais
empurr
Ministry
jamais
arref
minúsculo
minúsculas
Direct
fêmeas
gravitational
Capgras
idiota
controversial
Organization
óptimo
tempestade
tempestades
nadar
articles
Libya
Silicon
Suddenly
stimul
adquirir
enfermaria
proposition
advertising
psiquiát
accomplished
telhados
território
favelas
terrifying
diffusion
biodiversity
trapped
attached
labeled
líquido
térmica
nasceram
filósofo
filósofos
Medicina
pulmões
vencedores
orçamento
precedentes
próteses
Jerusalém
embracing
replacing
equilibr
lindamente
comprimido
europeus
Graças
fumar
pilhagem
sagrado
estimulante
lâmpada
Banco
Líbia
matrix
brinquedo
licenciatura
obstacles
chronic
Odysseus
Funciona
Absolutely
laptop
enlouqu
theoretical
diapositivo
guarantee
utterly
ridiculous
pirataria
episódio
nalguns
Building
Growing
passenger
progredir
Zimbabwe
franceses
barbershop
excellent
superficial
Similarly
crystal
batedor
estímulo
unbelievable
adrenal
supermarket
audiences
Craig
crocod
manuscritos
transdutor
indigenous
maluco
limpeza
magnificent
Ecosia
Sierra
açúcar
Entretanto
implementar
órbita
staggering
esferas
tráfego
carácter
transducer
metronome
39
57
62
71
83
89
Ak
Aper
Ath
Aicha
Bal
Band
Bru
Cav
Cod
Cho
Dê
DD
Dal
Drey
Eh
FM
Fel
Find
Got
Hur
Hers
Hunt
Hama
Huh
Himal
Hillary
IG
Ill
Jac
Jup
Jake
Journal
Jiade
KI
Kam
Kong
Kof
Lest
Live
Mall
Maps
Mik
Nich
OEC
Pen
Post
Peg
Pret
PET
Rad
Rei
Rita
Rapar
Ryan
Sn
Sher
Soph
Ted
Tenn
Tijuana
UC
USA
VM
Zip
bend
cess
cine
cated
cól
caut
dy
dut
dava
dare
dumb
fom
fence
fita
fosso
foster
faint
gat
gir
gear
gate
givers
giro
gained
hat
haz
hidro
huh
ira
jew
jaw
lentes
lenta
mit
mere
mock
moch
pê
pity
paix
pne
pát
ponder
rup
racional
rush
ramo
sele
senso
tia
till
tart
treas
táx
uber
vim
vinho
vici
vitor
wound
wings
zon
Ébola
ás
águas
##dos
##deias
##rost
##rador
##çá
##oples
##sh
##sance
##lor
##ubs
##ientar
##iático
##cido
##cup
##cuss
##hima
##vimos
##vable
##view
##zar
##zal
##zone
##bow
##burg
##fas
##fig
##gado
##ki
##kward
##RT
##HC
##PO
##EF
##enha
quilos
quinto
enra
ende
##ashing
##inate
##anal
##onal
##onografia
##atisf
##isphere
##iscipl
##alh
##alar
dear
deitado
##omi
##omy
##omem
##omed
##emin
##emia
##employ
##amine
##stage
##stein
##adél
##icy
##icer
##icular
toast
queijo
apag
##ingue
##edral
##idir
##utenção
##eted
##etown
sew
seats
isl
##ivel
estup
reass
reator
reju
##avas
asas
asfal
##uri
alinh
aluc
alfab
aldeias
iter
conquist
##owed
anfitri
onstage
##rizes
excer
##unho
##unha
proceed
stable
staring
athe
atuais
atribut
abol
aborto
pride
prédio
##ceb
wash
chick
chew
sugest
perplex
##aze
##ocell
canad
##tober
##eij
desg
desce
##udd
seriamente
usem
friction
fricção
shower
shocking
shorter
lix
arrow
compra
compart
contente
contorn
preg
##asty
##émica
##coins
##aissance
leaf
plain
amen
amiz
amarr
entes
knees
##aining
estádio
##aire
clich
manutenção
unh
##brew
##prot
esclar
Ing
theirs
faciais
colecção
coluna
dial
ado
adul
advis
##ciss
tale
cript
criadas
assess
querida
##egeren
matches
##redor
teór
relva
passing
passions
passarem
passageiro
corp
afirma
crypt
consens
consiga
consomem
poo
brands
brilho
qualidades
intimate
poly
twins
mediev
socially
Sea
Sex
Seattle
possui
##rypt
histories
casais
indica
sentin
sentou
oposição
grandpar
surgem
surpreender
Almost
Although
##ísia
insu
Chuck
informático
ironia
betão
campe
constitution
fled
Dead
Develop
tornámos
decorrer
guests
heritage
confund
confined
confusa
antiqu
anticip
metast
##fulness
signature
##neys
tiro
direto
##range
scales
formula
fins
finais
distinção
Island
remoto
command
Stra
Start
Stack
Stock
protecção
##ickr
minus
countless
curves
salva
autos
autod
findings
basics
fict
ficámos
ficarmos
belas
economist
Unilever
idi
locations
##akota
##phia
posse
positivas
Portugal
hometown
expostos
file
filos
##lah
fizéssemos
deixava
endure
endless
retro
##iley
funcionário
façamos
controle
virgin
mimic
maluc
malarious
construindo
construíram
default
exclu
offers
offline
biológicos
biológico
biólogos
descar
accomp
esperto
sinapses
fará
negação
bitcoins
superc
superst
Internacional
##ratos
programmer
pedest
pedidos
fundamentos
decides
perguntámos
gerais
continues
kidding
olharam
sexually
sexualmente
reader
bush
horrif
motel
##afi
refin
behalf
##ómicas
transformam
transforming
handful
Armst
controlling
publicado
compreens
compreendo
absence
Goose
pretos
discord
colocado
skull
vivido
baixas
consideração
segreg
baseia
partilhados
descobrem
Anim
momentum
mantido
portal
probabilidades
politician
merece
Energ
youngest
urge
seemingly
greenh
origens
##ometeor
aplaud
filhas
pasting
desenvolvidos
reasonable
radar
significam
observam
observed
viveram
identified
##lessness
##ísticos
ficará
Queríamos
Joy
Orle
Orig
tenth
equipas
charity
tendency
##ecemo
Desculpem
Maravilh
produtores
gravado
versa
comportamental
biologists
deterior
reconfig
payment
habilidades
dirt
dependem
##apeut
esquina
flui
investigate
Elvis
improved
##forward
sequest
Justine
Justice
promiss
implac
degener
1993
1996
1997
tube
fantásticos
engineered
preocupem
discoveries
calculus
calculated
supports
hipot
adoramos
labs
approxim
approaching
comerciais
deepest
Outros
Pensamos
##ungle
hotels
hotéis
caem
postos
impactos
responded
variations
comparado
virtually
Harriet
##borough
140
awake
awkward
banjo
suscept
inclui
fossiliz
emotionally
Using
mecânicas
Spain
fastest
associate
rodar
guardas
symp
elevados
relacionamentos
discussions
desapareceu
autoridade
autoridades
psychop
Cooper
galinha
levanta
levantou
honestly
catást
velocity
mutations
winning
museus
Alguma
ensinada
ensinaram
independência
lifest
revelação
prossegu
Chinês
protegidas
protecting
limitations
pulling
##ígena
brilhar
Escol
compreendem
damn
desperately
bedroom
##ynman
fraud
Boa
Book
tables
Edward
pigment
##ulsão
isolamento
perigosa
diminuição
optimism
bacterial
dominated
cegas
sched
cooked
Bangl
distribuído
Palin
assumption
vulnerável
priorit
senhoras
aplicam
escritas
críticos
affecting
variable
October
psicop
Flickr
pusemos
puseram
sofre
regulation
fishing
sectores
contextual
covering
cantores
cereais
sacred
atrai
conservação
conservadores
capturar
collaborate
correctly
candidates
Verm
hopes
nascem
Swann
feminine
feminino
Meegeren
imprimir
lembram
harness
Overflow
contentores
vestíg
circuits
Daí
cooperation
assemelh
Feynman
fitness
describing
pulse
Encontrámos
aleatória
romantic
incentiv
dirige
abundance
concordar
exponentially
exponencialmente
Espanha
structural
músculo
diploma
absorb
apaixonado
empowered
altruism
mergulhar
piso
striking
previously
clínicas
appears
enfrentam
customer
diagnostics
cenários
moldura
reprodução
corresponde
delicious
Palestina
Jerry
Russian
##ágio
toilets
Canadian
composição
grammar
vagas
pronta
espetáculo
gratuitamente
biofab
átomo
exceção
Steven
adequado
mouths
width
elétrica
resolvido
apercebemos
apercebemo
exercises
pássaro
recomend
vibrating
Model
àquele
partnership
migration
weakness
sucedidos
immigrants
Tunísia
budgets
injured
diagnósticos
Humanidade
Trabalhei
escalas
idênticos
blockchains
Filadél
abraçar
Cas9
Ministro
synapses
sessão
revenues
eléctricos
protótipos
accelerating
Visual
aeroporto
ilustrar
Philadel
Norway
ressonância
intrins
encaixar
timing
simultaneously
declaração
demorou
ambulance
correcto
astronautas
Educação
bené
benign
parasita
confortáveis
exhibit
pursue
inhib
upset
hierarchy
jumped
cluster
adapted
Associação
programmers
kicked
inconsci
exploit
agrícolas
Jonathan
Commun
mencionei
encouraging
obsolete
responsabiliz
philosophers
Neandertal
Department
Observem
Certamente
enabled
cumprir
Toronto
póster
apropriado
orçamentos
lobby
resumir
prótese
Annan
Jerusalem
Copenh
July
biotecnologia
micrometeor
Geoffrey
sanguíneos
Wait
reacção
guitarra
Palestinian
configuration
chimpanzés
quotidiana
projeções
imprevis
portraits
ultrassonografia
barbearia
Ilhas
sepultura
Khan
orelha
enhance
virtude
selvagem
hambúrguer
Greece
alerta
recommend
Pouco
rescue
bridges
2040
cursor
armadilha
judgment
Hasbro
Tamara
farther
sotaque
esqueçam
frigorífico
arsenal
Hiroshima
augmented
bipolar
baleia
cachorro
solucionar
Debbie
Tunisia
fórmula
Arabs
gigawatts
repercuss
anthrop
spheres
basketball
##ioterapia
Broadway
gémeos
Kinect
Wagner
jitney
pyramid
pirâmide
Odisseu
precursor
Antártida
Carrillo
lymph
##anthrop
desflorestação
phrases
microphone
lifelong
omnipres
Dreyfus
IGF
Jupiter
Kofi
Lestrade
Pretty
Sophia
Zipcar
paixões
seleção
rejuven
grandparents
Armstrong
Filadélfia
Philadelphia
Ai
Aw
AT
Ace
Bos
Buzz
Cidade
Clear
Clu
Cath
DK
Dor
Dei
Eight
Efeitos
EEG
Fu
Fer
Gen
Gaza
HG
Ham
Hip
Holl
Indo
Ign
Ida
ISA
JF
Ka
Kur
LA
Les
Lov
Leg
Lama
LHC
Mi
Mill
Mond
MBA
Nam
Nout
Northern
OC
Old
Pic
Rather
Rock
Riso
Saf
TM
Tir
Tai
Try
Trib
Tentei
Utiliz
Vimos
Vêem
Wide
Wonder
Yap
Year
aunt
bê
bin
bell
bump
cós
cree
crap
caves
danç
fã
fú
fires
fidel
furacão
gan
gonna
hors
hire
hired
híbr
jet
jack
jazz
lido
lamb
laughter
lane
lama
lanes
mestres
ni
nick
nanos
nomin
pand
picos
pilha
resso
raro
rubble
ster
tone
tact
tóx
tintas
ubuntu
vín
wet
wav
wow
wise
wins
wives
Éramos
ós
##nat
##rors
##remente
##ridge
##râneo
##çadores
##sil
##sur
##like
##ugu
##uous
##mon
##mod
##mans
##matic
##pro
##pir
##cir
##hall
##hones
##vant
##vente
##zi
##yles
##bust
##bable
##bands
##bility
##fish
##fire
##gy
##gia
##ículas
##HO
##wi
##west
##ôn
##erá
##eros
threw
##aramente
##arca
##arian
##arug
quo
qui
enz
enquad
##iny
##inely
##orp
##org
##oric
##orking
##anch
##onésia
##atories
##isy
dece
demo
dete
deuses
##emble
##itadas
##itely
##entou
##adder
##icut
##icatas
toes
##reo
##reto
inib
##iding
##eck
##ecções
##eciam
##ecraft
andamento
##iava
##imental
seam
seed
##leep
estigma
##irement
rear
revisão
reabil
whale
##aver
##avery
asham
##urre
##urança
##urger
alf
aliv
alert
item
##acta
##antrop
##antemente
##seas
forb
anom
anel
maker
Thirty
emite
##umbo
ongo
##rians
##andal
##unes
##aya
stum
acqu
acamp
soap
esf
esfera
##play
##pless
##plég
atos
##izador
##abad
##abet
##auro
abd
abismo
abortion
prémios
##cialmente
##keep
chol
cheira
chains
cheios
suave
##ocas
##apa
tráfico
##ched
neu
##outs
outward
desil
desvi
##uda
pee
peoples
worms
frames
frág
orch
fazíamos
##pool
shuff
shaking
arcos
arredores
Itália
Italy
elites
contribution
coach
cobert
terribly
disfun
preco
resident
##assion
##assador
##asticamente
caridade
gross
lexic
plum
pleno
justa
knife
##brir
impor
império
butt
trains
recu
reck
interd
interag
interações
realidades
realities
realização
cloth
manner
unst
mesas
Whew
escadas
colher
colunas
##ignific
##urei
whoever
##ibilities
criarem
cripto
##ruption
incomes
incidente
similares
humanitário
humanitária
falem
matou
mostramos
relatórios
relief
passes
passiva
corria
correm
afeg
criter
consists
importam
pensando
destruct
brush
respir
##culares
modular
qualities
intense
polícias
mede
medições
##ixar
encom
encoder
buff
happily
channels
margens
cash
casamentos
##adesh
indifer
precisos
sentiam
sentiram
opposed
newly
Alan
Alter
conseguissem
insignific
instrut
instinto
institucional
capability
melhora
irr
iríamos
##eceram
backup
phil
constip
articul
##ricate
volumes
tornem
histórica
thrilled
thresh
##encion
Hebrew
entrega
demol
##posição
##ítico
##ítulos
distort
Isabel
regional
regiões
##ésimo
105
futuras
escolares
escolhi
Stand
proto
falarem
##front
suborn
subordin
subjac
computacional
minar
mining
minister
counts
salary
##íns
##ínas
autent
autón
beloved
idades
existente
existisse
##ribed
posicion
moviment
homossexual
filantrop
fizessem
láp
governação
penet
percebo
deixe
deixá
retreat
retire
retinas
baratas
funcionava
animation
afterwards
mald
excuse
Howard
esperanças
engenho
interessar
neglig
bites
superint
##anhos
##rato
##boards
limitar
pediram
slice
slavery
germes
continuo
continuei
criarmos
kidney
attending
causou
tentarem
estudado
generic
delay
motors
calories
tradutor
refuse
handbag
juntou
professors
publicou
tries
suppose
collaps
##rituras
##énese
tomou
tomamos
cube
stopping
silly
silver
silks
liberais
enormously
sensibilidade
classificação
pontes
escrevem
foods
portion
probability
privadas
Envi
correntes
planting
planted
headlines
ursos
singers
glând
##âmico
Conc
warhead
aprenderem
desenvolvida
imagining
brev
Leyma
objectivos
strings
advances
empire
utilizada
divor
divulgar
consuming
tentado
equipamentos
dissesse
dissessem
domain
fezes
absoluta
puderem
185
tende
tends
workshops
immense
definido
##onesia
Despite
Marc
laboratories
aprofund
naquelas
quisemos
quisesse
protege
passeio
telecom
payments
tiramos
Peace
Peço
redefin
estrange
monop
monkeys
Peru
actively
esquecemos
flux
copo
copi
copying
Elon
##atorial
improvements
promote
swing
waited
ouvia
Someone
conceber
voltarem
impressive
determina
determines
determined
Mann
inovador
rápidas
1600
urbana
feminist
lowest
presentation
lander
##yll
Beh
Engine
cancros
practicing
décimo
hipp
lidam
enviá
Johann
demonstram
Calt
caíram
communications
sedas
sedução
teams
inspirado
sends
respondi
parecidas
arranged
comparison
temperaturas
pathway
pathways
Johnson
orgânica
evidência
obtivemos
banqu
summar
resistente
5000
carteira
vendedor
campanhas
critically
familiarizados
apartments
fortune
nonviol
Aqueles
verme
mosquite
revest
papercut
guards
Whoa
##irements
disposição
trocas
predictable
curiosos
urbanization
psychologist
cleaner
gastamos
telefónicas
bonitos
bonitas
suicida
disponibiliz
habitação
honesty
honestidade
drawings
kilos
dezembro
visitors
produzido
independence
independentes
País
revela
ganhamos
shoe
celebrar
##élia
Haverá
sunlight
Geralmente
Guinea
Guiné
Escrituras
escritora
Consigo
derr
fraque
envolvida
apresentou
Indonésia
Indonesia
holand
relatives
avaliações
includes
conferências
progressos
cega
rotina
recebido
footage
histori
historic
riding
períodos
unfold
crossed
translated
aplicada
celebrity
steal
steam
stealing
roubo
previsto
avançado
April
Play
perfuração
ships
4000
Secret
quadros
pollination
fisher
anno
reconstrução
licença
graphic
sacrif
atraente
introvert
offering
wheels
saíram
Architect
sugeriu
citizenship
Supr
harmony
placing
equilib
Crianças
Mean
straightforward
Falamos
conectomas
aceitou
periods
afectadas
entusiasmados
hormona
sighted
contribuição
heroic
earliest
explicit
breadwin
óbv
óbvia
aceleração
manufac
polarização
reduzem
calorias
convincing
convincente
abundante
illnesses
devastating
Poderá
Poderemos
protests
subsid
demonstrate
demonstrated
Faça
fechados
petição
implemented
Research
Devíamos
intuition
procedimentos
Começamos
applies
piscar
exigir
exigência
exigências
1960
1968
eggs
benefici
Independ
sadly
entrevistas
museums
burned
testemunhar
switched
360
Russell
Somalia
physicists
composition
gramática
consistent
treinador
glaciares
denomin
surpresas
empreendedor
shelf
prevented
skeletons
precious
assignments
Modern
terminado
cracks
hemisphere
punchline
gelado
senior
quântico
alarme
##ográfico
cowork
lâmina
iniciais
falhou
succeeded
departamento
desvan
undergo
diplomacy
diplomacia
Filip
lectures
venha
woods
##hyd
Academia
Scotland
Ministério
witnessed
Avaz
ascend
acolher
atrasar
accelerate
attempts
cosmic
episode
definitivamente
migração
doodle
diameter
intríns
explodir
chefes
bicycles
boundaries
egoísta
gallon
gallery
otimismo
##burst
##burgo
astronauts
Liberia
Liberdade
parasite
assegur
arbust
retrato
Eventualmente
Knowing
Libéria
inesperado
stimulation
desmont
arrisc
simpático
Victorian
gods
rastreio
vindas
carrinha
filtro
philosophical
accomplish
territory
escravos
persuade
subtis
Escrevi
namorado
Construímos
mestria
intangible
encountered
reporter
reporters
Naquele
psychiatric
Florence
encouraged
Easy
Julian
pregnancy
discrimination
silicon
Neanderthal
estúpida
proibição
cristal
synthetic
pulmão
manuscripts
Jordan
obscure
disconnect
disconnected
Permite
orgulhosa
ONGs
aux
lungs
genocídio
ministro
equilibrar
authenticity
nódulo
ratings
alargar
reverberação
fingerprint
chimpanzé
Melhores
Senhor
pronunci
frightening
contínuo
interruptor
Parlamento
textbooks
negotiate
bateu
nurse
dopamina
granular
consigam
Revolução
chimpanzee
privileged
Autom
overwhelming
champions
ocorrem
seduction
empolgante
hábito
empenhados
rectang
desastres
desencade
socioeconomic
disturbing
condicionado
engenheiro
aggregate
foguetão
Abraham
Business
Louis
cathedral
garrafa
catastrophic
Ultimately
austral
cockta
squee
homicídio
Salaam
módulo
trágico
agrupamentos
spacecraft
columns
Connecticut
debilit
statistical
codificador
piscina
Square
unintended
fármacos
Administ
fuzzy
Óscar
forecast
loyalty
basquetebol
tiroteios
OECD
catedral
jewel
asfalto
filosó
ISAF
Taiwan
vínculo
ashamed
ongoing
frágil
precoce
threshold
Leymah
41
58
67
97
Az
Award
Bor
Bran
Bels
Bassem
Baker
Ced
Cant
Cru
Cars
Câm
Cara
Cesar
Corre
Caso
DA
Dow
Dong
Dream
Dub
Dakota
Fut
Form
Fred
Fried
Gill
Given
Grove
HW
Hit
Hary
Hold
Houst
Hmm
IK
Jr
JR
Júp
Kat
Kal
Kim
Kir
Kend
Kick
LC
Las
Lis
Light
Lake
Lots
Lisa
MP
ML
MW
Mog
Mans
Mong
Math
Mala
Nash
NSA
Omer
Oreg
Omm
Ooh
Pra
Pont
Picas
Poll
Plus
Penn
RS
RV
Rel
Rip
Rome
River
Rub
Riley
SM
Sho
Sete
System
Spring
Tanto
Tide
Tani
Use
Urb
Vel
Venter
Work
Watch
Wald
Yor
Yellow
award
aonde
bilh
bure
bench
cro
cau
cass
cóp
dw
dive
dadas
dali
furn
ferv
fíg
fenomen
geram
gaps
girar
ghost
hill
ipr
julho
jungle
krill
lam
linda
lerem
lecion
mul
orações
ovos
pous
piano
rara
rumo
scul
suns
sized
tect
tetra
vic
vary
venham
wing
wine
wond
waters
xen
íman
óculos
##das
##render
##ofer
##li
##lum
##aque
##uci
##tes
##timo
##iologia
##mite
##pack
##cot
##hados
##hran
##zig
##zac
##yama
##ymm
##bes
##bado
##bucks
##jor
##fur
##60
##ímer
##RS
##RNA
##CO
##Car
##water
##AC
##Po
##ña
##erão
##erness
##enix
##aron
quintas
enters
enrich
##asa
##asters
##inished
##oran
##oral
##orial
##orient
##anja
##atem
##atidão
deer
deem
##emic
##itis
##itab
##itei
##iture
##adela
##adium
##icina
##real
##reta
quebra
inorgan
inverno
inorg
##eli
##idado
##idões
comando
comecem
comedi
##ecca
##ecedor
andamos
andares
andarem
##rolo
##rolar
##iliar
##etores
##etite
##iabilidade
parei
doze
##igation
revers
reuse
reprim
whales
asph
asymm
##uralmente
alm
align
##acity
##odin
##owden
##owitz
forçado
anual
Thom
Thus
Thord
##umen
##umonia
##estock
meerk
##istência
##istry
##rier
##ribe
exit
exista
exile
exílio
exatidão
Andes
noises
stigma
strict
acids
sovere
##esses
##plin
##plus
##izab
wasted
##oped
##cipe
perse
##ocr
##ocam
##ortos
imort
tril
trillions
##ushing
desal
##guan
##udos
##uded
##udir
noturn
notáveis
notici
server
usava
##ogur
fres
fria
orph
shining
##onta
arter
allies
compat
compuls
coined
coorden
##veland
terrific
loans
looting
##hobic
##hoenix
disfar
agents
preta
partly
##oko
##astas
temple
##esej
cared
grata
grãos
##aise
leu
lealdade
amamos
amava
amendo
hey
##ossomas
entidade
entran
entramos
Estocol
masters
##inked
##ainable
recife
recorde
reclaim
##oie
spill
spons
realistic
estável
clot
clients
feiras
##ounding
mesqu
##presso
upd
sail
sake
espon
espelhos
##ilhos
inflex
colónias
##ologistas
adorm
##enceu
problemático
falado
falavam
falecido
mata
##redict
cerne
imagery
##heid
corredores
crânio
##achi
##integ
nowadays
##ctional
importar
poeira
pensávamos
destination
Asian
intros
inteiras
intoler
poli
poleg
polímer
medimos
Sean
Apollo
encoded
##plegic
maré
marvel
marine
maridos
marrow
casca
livremente
livestock
prima
primas
oposta
overload
surgeries
suricatas
surplus
boil
booth
Alec
conseguíamos
caps
blown
irreg
backed
underm
camps
seguiu
mudamos
Compr
constrói
famously
artística
menores
Devo
começava
##ateral
decom
guilt
herói
conforto
Oslo
Oscar
thriving
redenção
##icasse
centímetros
entregar
palm
encontrava
experienci
scaling
format
viscer
goodness
sheets
distract
distâncias
regret
Podiam
##forme
escolhem
Stasi
protet
falarmos
wrist
mini
provou
provém
counted
curador
curator
curtas
##íncipe
autismo
milímetro
exempl
duras
valer
valem
belt
systematically
##phones
posto
builds
repur
repensar
actors
deixando
deixadas
deixámos
bars
barra
barulh
controv
##essee
##essei
##weis
maliciosos
educators
construções
courts
offend
investing
descol
descans
accidents
chegarmos
Naomi
larvas
keys
comunicações
espertos
engol
##pression
faremos
interessada
foundations
believes
violin
violentas
digging
communal
publish
ambição
ambassador
limbs
##peção
##luoresc
slower
funds
moist
recebo
continuous
propus
specimens
causado
séries
highways
##angue
selected
selva
selecção
horários
praça
prayer
Americana
fique
fibr
ilhas
Okollo
acontecerá
Arist
cabin
aprendido
tribe
contrair
edição
quantia
players
healthier
trabalharem
encontrarmos
potenciar
bastantes
freed
colocámos
sketch
Amor
Amitab
##érico
evolut
aparecia
pesado
##ógico
##énix
##bably
Exact
Explos
cues
cubic
sonar
sonic
classmates
trabalharam
mantra
saberem
mush
musicais
religiosos
politically
politicamente
opera
operator
Simple
Simps
pasta
radically
siRNA
directed
friendship
interno
Climate
pagamos
consumir
Joplin
tentativas
admiração
admirar
dominar
180
184
18th
personalizada
immort
immers
batteries
vacation
Prozac
Probably
gravada
quisessem
nightm
deterg
reconhe
Peña
representado
tipicamente
monoc
messy
confiantes
fluent
fixing
participating
Elect
Elizab
frequente
valorizar
difficulties
sequenci
sequenciar
Troux
promov
promising
prisons
abrigos
swall
viewing
viewed
inventing
inventado
Olímp
envolvem
Too
voltamos
fotografar
nervosos
ingén
emergente
tuition
closest
automated
automático
Primeira
innovators
supporting
substant
adoram
fathers
Calcul
caça
inclinação
invisibility
salvou
inspirados
alimenta
taxi
responds
geop
benefício
Harold
Harlem
árd
obtêm
obtained
attacker
bananas
expecting
vende
gradual
gradualmente
assistente
critérios
diverg
apartamentos
stressed
miscon
mecânicos
nonin
dinam
3000
1988
1980s
referir
magnetic
spreads
relacionamento
prediction
varied
psychotic
Semmel
exercer
revolutionary
cleaned
Britânica
Cohen
##ufl
loucas
squares
squared
suicidas
levantem
habitantes
honestos
honestamente
reaches
reactor
dangerously
Phys
prospect
ganharam
##ISA
sozinhas
limitadas
cidadania
logical
logística
ativismo
recolha
fornece
angles
terrestres
1976
entered
compreende
Republ
deriv
threatening
desperate
adaptação
acceptable
surviving
fabricante
sooner
Solar
tremendo
surgical
isolado
transferred
determination
manhãs
bacterium
amplamente
assusta
artificiais
reformar
distribuir
judicial
enganados
historically
historicamente
financeiras
folha
touches
touching
screening
Teacher
Tehran
Teerão
checked
celebrated
Humans
prosthetics
Mediter
mineiros
agricultor
struggled
sintam
conclusões
documenting
documented
indicate
Nemo
flexíveis
annual
arrive
interpretar
##etheless
functioning
directo
1941
1948
Espera
compassionate
##oniaz
desempre
campaigns
dividida
prosperar
harmonia
daughters
placas
reminds
perspetivas
evoluíram
radicalmente
Falam
texting
monitoring
aceitável
vantage
Janine
Remen
vestir
vestido
submar
fragile
explosões
regularmente
characteristics
circulação
castanha
temporary
simpler
afetadas
reduces
##iforme
disparo
Chamava
Ahmed
grip
abundant
inclusão
scanners
devastated
resilient
Decidi
ombros
##flix
towns
procedures
reserva
conditioning
journalism
linf
mergulh
1960s
egg
mountains
##ields
Natanz
tribo
CERN
moldar
reproduz
interviews
Maddie
premissa
claimed
##íssima
authority
beaten
bubbles
Levantem
Partilh
máscar
heaven
nutrição
prontas
smells
gratuito
denial
fóssil
externos
orbiting
displaced
bruto
exclusion
ocupados
flutuar
flutuações
##fiança
Aliás
MRI
ratio
assigned
urgente
urgência
navegador
Lawrence
Tornei
attracted
contracts
tubos
desertos
manufactur
Norman
tolerância
discipline
intrigante
intrigued
intriguing
hacking
injuries
Humanity
ethical
ethnic
folded
gordos
shifts
shifted
recovered
underground
tristeza
europeu
marriages
ironic
fantasy
fantasia
reconhecem
volunteer
tanques
excitement
illustrate
Direito
session
##zymes
notebook
belongs
hamburger
tagged
convenience
megafa
##holm
assinatura
controversa
Budap
mirrors
otimista
Chegou
settled
ocasião
Magazine
silenciosa
newspapers
Voltando
pursuit
rodeia
stretched
festas
judeu
purely
travar
extrovertidos
absurdo
Procur
reconciliation
comprometer
catastró
rebuilding
proporciona
Narrator
weighs
persuadir
exploitation
membrana
membrane
officials
ajustar
síndrome
tanks
evaluation
intangível
encounter
reflexão
Florida
devolver
democrático
bullet
escolhido
neuroscience
Perdemos
Transform
Collusion
Tori
Vietname
##icultural
imitador
unpredict
conspiração
conspiracy
irrigation
Computer
inherently
infeção
genocide
paralisia
Goldman
Helen
Wael
intimid
fluctuations
occupy
europeia
Jimmy
Melhor
PowerPo
honeybees
pesticidas
wrapped
projeção
carpint
evacu
polinização
2020
exhausted
Virginia
entrevistar
Pacific
dopamine
consigamos
Revolution
circuitry
chimpanzees
Tanzânia
índice
israelita
israelitas
Society
humilhação
iranianos
helicop
helicóp
nanopartic
Brah
bailarinos
ramificações
uploaded
encolher
descrevê
millennia
antibiotics
Cleveland
ISIS
grocer
enforcement
abastecimento
Massach
regardless
Students
supermercado
improvável
settlement
arbitrar
Bloom
Netflix
Sonny
Type
patern
sublinear
espanhol
intentions
Mozart
Kevin
Nicolas
Telesc
skeptical
espreitar
destacar
Starbucks
Toyota
Schwarz
McDonald
empréstimos
repórteres
Hatzal
rubber
reimag
trailer
negociações
certificate
aleatoriamente
Decidimos
Effects
Fuller
GCH
Hopefully
Learning
Maui
Windows
gaiola
Ártico
inquérito
deserts
relógio
##ângulo
Cloudburst
automobile
hallucin
XVIII
MOOCs
Nikola
Renaissance
WALL
manteve
tenderness
quintal
parallel
storage
coleção
Lovelace
panorama
Aperce
DDT
Dalai
Rapariga
Tennessee
uberPO
chicken
amizade
Development
Stockholm
accompan
approximately
Clearly
Catholic
Idaho
OCDE
enzimas
deteção
reabilitação
acampamento
neurop
Whewell
criteria
philanthrop
autenticidade
equilibrium
Dongguan
Haryana
Houston
IKEA
Júpiter
Katrina
Kendal
Oregon
Ommm
Picasso
Pollock
Ripley
Taniyama
bureauc
fígado
iproniaz
sculpt
inorganic
asphalt
Thordis
meerkats
Estocolmo
irregular
Okolloh
Amitabha
Elizabeth
Semmelweis
Hatzalah
uberPOOL
56
98
Aven
Abo
AAA
Ba
Base
Beij
Cu
Cá
Clo
Cód
Costum
CIA
Div
Dest
Dist
Digo
EC
Ets
Ebert
ELA
Fur
Fest
Food
Fénix
Grav
Gadd
Hu
Iv
Icel
Jav
Java
Junho
Kate
Kids
Kabul
Koran
Ly
MA
Mos
Ment
Map
Mai
Mach
Nin
Nine
Nazi
OMS
PR
Poss
Pick
Pale
Ponto
Pedi
Pivot
Phoenix
Ric
Sel
Sra
Say
Seg
Suf
Santa
Skin
Ts
Tendo
Tail
Tipo
Tecnologia
Ucr
VR
Wed
Wel
WHO
awe
bid
bucks
bilhões
cot
cint
cement
cake
dé
dies
davam
dang
dances
datas
dump
ease
eager
fans
fles
fardo
gin
gere
hos
hust
hob
jul
junk
lion
liver
mito
nour
opress
ome
oprim
pess
pie
penc
panc
pomos
pants
piracy
rust
rides
sie
tou
tribut
tutu
ves
vissem
wok
ware
yard
yoga
Árabe
És
Índ
##down
##eb
##rando
##ross
##romos
##lock
##aia
##uity
##tor
##iè
##ien
##iem
##iated
##mill
##mento
##mate
##py
##pot
##part
##cap
##cados
##cript
##hão
##haram
##vemos
##vido
##zinho
##yon
##bat
##bit
##bour
##bord
##bração
##fs
##fim
##fold
##givas
##xia
##éus
##óia
##íbl
##íça
##ívio
##âmer
##MC
##IC
##BI
##Net
##EP
##Vs
##osed
thread
##aríamos
quiz
##ason
##inn
##inity
##inável
##inua
theft
##aland
##alhar
deci
##omé
##emp
##itud
##itavam
##entam
##amor
##amentação
##state
##ader
##adia
##icond
queima
apolog
appoint
incis
inger
inches
##edora
##eland
##elada
aposto
aposta
apostar
cometer
##eco
##eccionar
ando
andei
##rofe
##eters
##etts
parano
doc
dobr
doador
estilos
asyl
##urou
alast
alph
alleg
alívio
ital
conquer
##aci
##acle
##odel
weaving
##anting
##ulam
##ulados
anjos
paraf
paraph
maio
##umph
##estimate
meets
##istically
exato
exager
exaust
exprimir
Anda
Android
bears
##verse
##verted
noiva
strap
stakes
stadium
acel
acostum
##ifies
##ifiquem
sobe
##essemos
esco
esquis
##plet
atend
atores
atitudes
##abl
##abular
##abytes
portu
aban
abro
abused
prós
prone
##opian
chore
chief
chasing
chromos
##agog
peritos
##azar
##ocom
##ocur
verifica
imitar
tron
trinta
##chos
##chem
##ensity
##ensável
outono
##usetts
desol
descent
desculp
naive
notar
notei
noticing
##oste
##ostamente
fras
shares
shots
arist
arrum
Italian
##ntese
contêm
coher
cobre
coelho
coordin
loan
agon
aged
agência
prel
pref
partit
resg
resídu
reserve
##depend
##okes
ouço
temples
templos
##alled
carav
carru
cargo
##cool
leões
plaus
amig
amplo
heel
enth
justificar
##bris
##brand
impose
tract
##arten
recri
recorr
recuar
interativo
interdepend
spat
spare
spray
realizing
estágio
client
feat
feather
fevere
mankind
unemploy
##brei
aquecer
##ipse
escult
Inverno
esping
espess
espont
espinal
espetro
colisão
##ovol
##osexual
diários
Quatro
adora
adjust
##acked
semicond
##amble
crias
##ramo
##ramento
##ords
##ordem
assinar
problematic
incend
incont
incóm
##egas
falantes
matriz
relut
reluct
##onda
passively
passivamente
estejamos
##hew
corri
corredor
crom
crude
crónica
consid
consol
importava
poço
transbord
brick
modest
modific
invulgar
intensive
intricate
twin
##ageNet
socialmente
encer
genital
casaco
indel
indígenas
precisas
senta
overseas
surpass
boiling
Alf
##active
instint
daylight
daycare
vocais
vocabular
Chih
blur
##icosso
irrad
irres
irony
backyard
backpack
seguidos
seguiram
mudaria
nasce
Debora
começarem
longos
longing
longitud
olf
extras
extinction
pouso
antrop
metas
milha
históricos
thrust
redire
Hebra
direções
direta
palp
##issões
demographic
lethal
##poses
scra
scares
scarc
formation
visited
visíveis
vislum
complained
distances
planes
regions
remar
patch
patog
Stat
Station
protagon
subc
miners
minoria
salam
salários
saltos
salarial
autistas
milén
duram
durad
brave
helpless
Parque
examin
Agosto
##aki
leves
##ighters
sistematicamente
existirem
##irações
##irable
poses
posed
continents
Portugu
expet
filas
governar
governance
perceived
deixarem
deixarmos
##teen
baralho
funcionavam
animada
animated
virou
Much
malign
defending
descobre
pops
exced
puro
descr
descu
descrito
chegado
creatively
seta
comunitário
resultar
sinc
engrav
##ólico
##ólio
##óloga
ergu
ervas
drum
drasticamente
claros
supervision
##anhei
diger
restra
cream
ligarem
##boy
programador
programmed
publishing
ambition
##version
slam
slaughter
perguntem
perguntamos
propinas
causam
Príncipe
rises
estudou
generosa
certificar
selet
selecion
##aths
calm
calend
##afanh
processed
processador
155
smallest
grains
hardest
localizar
ilum
ilus
##ómico
##ómicos
juntamos
juntaram
juntarem
médicas
50s
ocult
publicados
triumph
editing
comprei
suponho
couch
cheer
pretende
colocaram
colocadas
colocarem
colocarmos
aliados
consideramos
consideradas
Amb
concursos
concorrentes
evolving
aparecimento
pesad
pesca
Talks
TEDsters
tomates
Exp
cubo
physi
liberty
feridas
Ano
chover
choosing
sensory
sensíveis
mantemos
armados
saberão
muscles
religioso
merda
operated
Envol
minded
responsibilities
massac
glimp
##rássemos
filming
Conforme
multif
multicultural
Reb
Repres
acertar
Leone
League
observarmos
psicosso
identities
strand
strive
##ucked
lateral
answering
conscientemente
consciously
conseguiremos
conseguiríamos
tratados
lemb
##ertips
Joan
typing
organizadas
dissemin
admire
favoritos
epic
189
1800
audição
personalizados
bloquei
charter
topics
correta
researcher
permitindo
batalhas
pressup
Novamente
paisagens
##ussani
gravidez
##riso
comportar
estrutural
biologist
transported
kills
teleg
expressing
expressed
tirou
tirando
habil
intelect
Preoc
60s
chegaremos
monet
messaging
index
indefin
beneath
alterado
activism
175
copied
crescido
researching
fixes
frequências
objetiva
joining
stepped
competing
competência
danificados
implanted
degrada
abril
abrimos
wax
comprou
ouvida
inventores
connectomes
desejam
desejar
desejamos
predomin
Americano
procurando
voltando
voltaria
Preciso
Precisam
recordar
fails
impressos
impressed
nervo
1994
serving
inovadora
garg
emergence
elementary
trazem
trazido
separados
voted
mentiros
winds
enviado
fabrico
##omput
Pensemos
Pensava
acordos
demonstra
inclin
Notice
etapa
blocking
parecida
arrancar
raises
comparing
virtues
virtuais
orgânicos
obtive
sussur
bolsos
bolsa
policial
resistant
repararam
specialist
reflete
vendidos
grading
apartheid
nonetheless
transmission
associados
associations
strang
abordagens
requirement
requirements
1987
magnets
magnética
magnífico
elevar
cresceram
expanded
ordens
autorais
Coast
bocados
dropping
galeria
louder
destruiu
levantam
honesto
honesta
reacting
mutation
draws
cognitivos
winner
ensinado
PhD
revelou
limitation
limitada
limitação
limitados
sustained
Having
logos
logistics
arguments
argumentar
percebam
percebido
forno
angels
pegámos
speeding
Conserv
deriva
despertar
lançado
fabricar
fraude
envolvente
tabela
tremer
Conseguirei
concertos
concentração
espalha
jornalismo
isolar
perigosas
transferir
estatais
scholar
neurocient
neurocir
gratitude
thermo
thermal
centered
##meer
accountability
gigantic
aplicá
##ytodes
checks
originalmente
celebridades
rockets
substituição
router
avançados
costumávamos
Plant
categor
mandei
punishment
Fizeram
Occup
pinpoint
integridade
integrity
sofá
relevantes
polls
regulations
flexibility
flexibilidade
sections
sectors
restaurants
iceber
rolled
paralysis
facilitate
infinita
destroying
destroços
positioning
graphics
Oriental
pirate
conservative
Esperem
collaborators
aparecerem
trafficking
Teremos
Vermeer
hoped
nascemos
Subs
fingertips
harmful
snap
específicos
Criei
Criança
ganharem
Afghan
Falemos
dignos
textura
aceitei
racismo
afecta
registado
conduzem
conduziu
impressionantes
fashioned
enjoying
assembling
assembled
describes
Import
ImageNet
phenomenal
cultivate
eletrões
eletrónicas
afetado
reducing
packaged
spoofer
disparar
polarization
reduzida
electrons
electrónica
targeted
haunt
inclusiva
scanner
Acreditamos
tripulação
corda
fuga
fugiram
veteran
protestos
fechada
exponenciais
Espacial
symbolic
Reserv
bandas
iniciei
músculos
inefic
Começou
Maomé
##genesis
mastery
altruístas
obsessão
tradicionalmente
infantis
frustrating
tecnológico
diagnosticar
occurring
confronted
##úncia
financiar
testemunho
implication
traumático
armazém
Levei
vazios
invasão
imperative
glaciers
Alexand
Minister
USB
Wouldn
fósfor
lesões
habituais
resolvidos
Keep
Milky
Viol
tricky
recompens
profoundly
##ptograph
remaining
urgent
advantages
platforms
Passámos
àqueles
neutro
instrução
dynamics
punched
tubarões
vegetal
accurately
satisfação
suspenso
laughed
tolerance
espectáculo
sucedido
immigrant
Others
Otherwise
crawl
sujeitos
incapac
minimamente
ethic
desvant
container
accommod
Film
wooden
intersecção
inflation
volunteered
Depende
crashes
flee
arrep
interligados
unexpl
traditionally
mínima
revenge
atrasado
eléctrico
eléctrica
margins
appreciation
Visuais
initially
conveniência
maximum
Compassion
aiming
indoors
boundary
golfe
porcaria
coberta
numeracy
comunicam
ambulância
gasoline
contemporânea
fórum
álcool
anunciou
intermedi
roofs
refugee
cinzentos
cinzenta
silencioso
diagnosticado
túm
enemies
inhabit
##imeters
Interest
simpáticos
fooled
alimentam
festival
hierarquia
clusters
adaptar
extroverts
escrevemos
Perceb
Percebi
##ográficos
Oceano
Zealand
masculino
Considerem
armazenamento
metabolic
Biologia
bonds
favela
mestrado
nalgum
pipe
##ácidos
parenting
Soviética
surveys
confession
autonomia
reflexo
entrepreneurial
corações
ciclov
ângulos
##nesday
maçãs
munições
discriminação
Certain
queimar
comboios
deparei
##icultores
parcerias
irrigação
delighted
Permitam
Vasari
dictators
alemão
pornografia
embraced
replacement
blew
nódulos
impulso
impulsos
coloquei
1930s
rooted
Ensin
Colocamos
Vanier
juríd
perpetu
contínua
Parliament
portrait
fluorescência
fluorescence
exhausting
lâmpadas
coincidência
Metade
Pacífico
gamma
reefs
atleta
cascata
guided
##rophys
farmacêutica
Hindu
Tanzania
sharp
inserir
sólido
distorc
autêntico
barriga
attributes
zangado
conquistas
compressão
leaning
recessão
recession
spiral
procrastin
divulgação
descrevemos
nutritious
antibiotic
Billy
OPEC
OPEP
bizarre
pouring
woke
inadequate
reposit
acknowled
acknowledge
aminoácidos
embarcar
measurements
solidariedade
Olympic
Olympics
dysfun
mysterious
interconnected
inconven
meteorológicos
paleont
Empire
undergraduate
Giussani
hammer
icons
japones
roles
quarteirão
desfrutar
recyc
indirect
sidewalk
##órdia
longevidade
Columbia
mexicanos
acolhimento
extraterrestres
Luther
Laugh
Narrador
rhythm
outdoors
deserves
colheitas
passageiros
corretamente
extraordinariamente
supplies
Frequentemente
database
STEM
Ukraine
dictionary
desajust
relentless
transfers
filmmaker
Fifty
Oakland
throat
estufa
maxilar
acústica
restricted
associações
neurociência
reinforced
Choir
Radio
pneumonia
anfitrião
atributos
unhappy
Inglês
supercomput
greenhouse
implacável
catástrofe
prosseguir
Bangladesh
prioritize
intrinsic
Holland
horses
nickname
óssea
buttons
subjacente
superintellig
collapsed
brevemente
aprofundar
Johannes
annoying
Meanwhile
coworkers
rectangle
Câmara
MP3
Malawi
arterial
clothing
controvérsia
unpredictable
Massachusetts
Etsy
Gaddafi
Iceland
Tailândia
Ucrânia
Wednesday
Welcome
julgo
asylum
desculpas
resíduos
fevereiro
vocabulary
milénios
Portuguese
glimpse
neurocirurg
Occupy
00
2D
49
51
63
82
AC
Aum
Apres
Aaron
BE
Ball
Bina
Baix
Bull
Buck
Bert
CT
CK
Cis
Civ
Cort
Creat
Cient
Cole
Canc
Cels
Cape
Cidad
DI
Dos
Druc
Dail
Dyl
Detro
Dubl
Domin
Ec
Ether
Elyn
Fico
Fale
FIL
FBI
Gil
Gol
Gest
Gary
Grey
Hun
Hole
Hala
Hills
Hicks
Iron
JN
Jor
Jess
JAW
Kr
Ky
KB
KA
Kind
Kah
Kanz
Kelly
Koko
LP
LD
LT
LG
Lan
Liter
Leste
Liga
Lenn
Ladies
Linked
Mam
Mid
Mell
Mold
Milo
Mull
Millions
Mitch
Maced
Necess
Pav
Pus
Pain
Pitt
Pew
Parem
Ponham
Pixar
Ron
Run
Rab
Raz
Rice
Rua
Roma
Redd
SC
Sum
Sach
Sue
Stern
Sark
Sonho
Sadd
SOC
Scientists
TC
Tot
Tão
Tre
Tri
Tay
Tend
Tong
Twe
Trat
Tiveram
TOR
UK
Uru
Uran
Ubuntu
Vê
Vegas
Yan
Yusor
Zur
Zac
Zelândia
brasil
cm
cing
cenas
cue
câmer
dri
dour
dual
dantes
danças
densa
drown
eats
ft
fich
frios
fero
feste
fração
foste
gem
gum
gif
gates
gaze
gafanh
hós
hated
hollow
julgar
ly
lust
lida
leram
leio
lumin
nó
ninho
nylon
northern
nasty
owe
ovo
pinc
ré
rim
ramos
rally
rud
rins
rival
sought
sizes
tes
toss
tide
tether
tiger
uh
upr
va
vil
vies
veias
vicious
wob
wished
wiped
ân
íamos
##nio
##dam
##dão
##dios
##rant
##rous
##riter
##rámo
##çou
##çadas
##oke
##ozy
##syl
##loc
##ught
##uário
##uilt
##tz
##tou
##ipr
##iços
##iative
##mund
##math
##minst
##pé
##pit
##pol
##cões
##cimento
##hia
##hinhas
##heceu
##vania
##zu
##zer
##jal
##jif
##jado
##jada
##jeição
##fly
##gles
##gín
##kh
##33
##éne
##ículos
##RPA
##St
##well
##works
##Bla
##PP
##OPA
##EB
##LU
##ôr
##aris
##arcer
quentes
enzymes
##ashes
##inent
##oron
##orqu
##oration
##oricamente
##ancial
##oned
##atma
##otor
##oted
##oul
##alhos
deals
decept
##omics
##omiel
##ndale
##emas
##itiz
##itivity
##itíssimo
##entin
##entada
##amina
##sts
##aden
##aders
##advant
##icism
##iciosa
##rez
##reiros
append
##ingale
inad
inau
insegu
inje
ingest
##edas
##elamento
##idência
##ecional
andavam
##racia
##ilm
##ilize
##etho
##etria
##etics
##imen
##imamente
##iments
##imónio
##olia
##olly
sevent
islands
##lev
##leys
doar
doação
##ivoc
estando
estrag
##irinho
reen
reap
##quard
##aved
asiático
##urally
##urge
##urfing
alumin
itiner
concil
##acco
##acious
##odão
##odied
##antically
forum
forger
forçados
anf
anat
Thail
emits
##eston
##estrial
meals
##isticamente
##andin
##andler
Anders
proph
##verm
nobre
noisy
sticking
acas
acident
##iffer
##ifique
sovi
esbo
atroc
atentamente
##izámos
##abi
##abama
priced
pricing
washed
##opular
##cially
chur
##aga
supl
##ocre
##ocated
##ocamp
##appoint
caneta
withd
imob
imipr
trim
trigo
##chas
##chel
neat
##eikh
##ension
outubro
outbreak
##usable
##inhem
##inheiros
despre
##gueres
seríamos
wore
##ogam
frald
veins
shave
somb
arc
arder
compor
comprov
elástica
##nthia
contado
contained
contágio
coe
cox
coin
coop
coating
terap
lobo
loads
discer
dishes
disadvant
disappoint
agru
templo
##alliative
caring
grant
leito
amada
##ossip
##uccess
##bria
##brush
impaired
##ósnia
trace
trafic
traces
##arton
recort
recifes
interro
interiores
spont
spell
spine
spite
##orações
realista
##aias
##airab
bypass
cliff
##beram
manic
##moidal
##avajo
upward
##ferência
##ipto
escuros
##riage
saímos
##ourced
##ourcing
infring
infecção
colm
colaps
colidir
dash
##ologies
##ologias
diárias
Quântico
adotar
humility
humble
workplace
semi
##ibati
talented
taça
assert
incess
incênd
simb
simbol
##egal
falaram
##rasse
relat
relem
releg
cerv
cerem
cerim
imagino
##ondrial
##ilding
##heast
ideais
ideologia
##theless
##acey
cran
cron
crum
conselhos
sabão
##ittee
##cton
##ctico
##ctea
##ieber
##ficamente
qualit
intended
medido
marat
marath
genial
genetically
ecológicos
indesej
primes
primária
opostos
overnight
surrender
boils
Alask
Alright
Alabama
##ificam
##obo
##obs
conseguíssemos
##anks
##ankton
inspect
instável
firsthand
Chag
Chap
Chandler
blended
irónico
betray
seguindo
mudámos
gota
floss
dizerem
menu
meninos
Deu
Deve
Deah
Deuts
começavam
extrac
decif
decimal
guest
guides
herança
confin
confissão
confusion
signing
devesse
redist
redund
redemption
Head
entregue
direcion
pali
encontravam
##issions
demit
demónios
virei
maioritar
scat
scaled
formado
visões
finishing
complicações
sheer
distrito
district
distanci
distingue
Ishi
regain
regimes
##cionais
commut
commission
##enhos
##enhamos
futur
##âncton
##ugn
escolhe
Stacey
subter
wrest
minorias
proving
curt
##yss
salientar
milénio
duration
lawn
ficavam
valiosas
belly
economizar
braille
##rencies
smiling
examine
##aku
levando
systematic
avis
presidentes
builder
movimentar
##fti
expands
expense
expostas
greatly
repete
Emily
perceções
activa
deixados
##teiras
retain
retros
retira
retinal
rethink
retângulo
barg
barro
animados
aftermath
viria
educacional
defenses
modeling
popping
excav
excecional
pupp
condem
investido
##ónimo
descod
chegando
##enciado
larva
##itionally
lastly
resulted
permita
farão
interessadas
questioning
questionário
##ólicos
negativas
negativos
drought
drunk
superv
##venção
violento
morre
digits
restr
restantes
creches
norms
programados
publicamente
ambí
atravessa
sucked
rapam
raped
rapidez
slope
germs
moinho
continuando
propulsão
specimen
attitudes
olhava
olhadela
Prime
Pronto
necessitam
riso
readers
generating
generosos
desenvolvi
seleccionar
motiva
##afar
developers
developments
158
Americas
grabs
##ília
fiável
refiro
empresário
transformado
transformando
transformative
Oklah
papéis
aconteceram
mortais
Arg
controlos
controlado
controlada
cabel
cabine
detest
aprendam
Acord
Across
triun
contracept
edX
editors
quantities
termina
playground
producers
##ailing
futureless
gostem
gostavam
discos
potente
potenciais
paints
collision
colocada
ski
alike
aliás
dessalin
considerada
Among
evolves
pesados
##riting
##énicos
tomate
tomaram
tomadas
tomarem
Exeter
Excel
cujos
Allan
Allison
sonora
cinto
cintura
piadas
universais
Sheila
liberta
ferment
ferimentos
##garet
choques
classificar
trabalhou
trabalhavam
manterem
mantiveram
embut
embarc
escreve
escrevia
literal
literary
portf
portable
religiosa
##ortune
operam
operatório
heading
urso
especializados
glands
medicines
Conn
Conv
desenvolvimentos
imaginei
achas
extremidade
Rebel
Refiro
significou
significativas
mattered
viverem
Cancer
capacitação
halfway
internos
Claramente
pagamentos
Assist
##ilton
utiliza
utilizado
answered
tratam
tratamos
tratada
lema
Frost
tentem
tentação
domingo
epid
figuras
Ouvimos
watches
analyt
remembering
blogue
charging
mustaches
lasers
legally
legais
legít
climat
amazingly
permitam
permitiram
battles
debat
pressing
vacin
##ediatamente
Marx
Marie
Margaret
Program
Novembro
cleared
detergent
killings
reconhece
##getown
monol
dependência
ordered
Perasa
missões
missions
activate
activados
marketplace
177
esquad
esquema
fluir
fluido
##ópica
preparado
preparation
investigation
participants
crescia
frequencies
cortado
honored
issued
improbable
sequencing
Justin
savana
Truth
dancer
##orreram
waist
inventors
Olho
Olhei
babil
Adv
Adicion
Somehow
lutas
110
records
ruins
influential
1992
servidor
Essencialmente
astrophys
garante
weekend
emergent
pesquisas
##ennial
separadas
affirm
affairs
automatic
168
Shady
Primavera
urbanas
130
votaram
preocupada
dreaming
mentem
presenting
landm
wallet
calculator
Bees
Beetho
epidemi
colorful
moscas
adorei
adoraram
enviarem
balanced
ignored
Pensámos
acordado
acordados
arche
maravilhosos
maravilhosamente
surpreende
diagnose
perspectivas
inspirador
fascinantes
responding
respondemos
responderam
geo
geograph
variável
##eresa
alcunha
profundos
morrerem
Deixe
Need
comparada
preferem
preferências
##boro
orgânico
shortly
obtém
attacking
dedicar
suspend
Contrar
bols
Israelis
criava
reparado
Move
Moore
vendem
vendida
vendedores
assistentes
fatia
pára
fortemente
misunder
mecânico
sobem
associar
Jealous
rodov
fights
misturar
guardados
1982
surprises
elevadas
elevated
involve
teaches
reneg
purple
purposes
severely
Britânico
bocas
democracias
descrevi
telefónica
levantaram
civilian
habitável
mutant
mutação
tonelada
mundialmente
nuts
winners
independently
Paulo
Paolo
##otox
entendermos
protects
protective
combinam
combinado
combinations
aproximação
prestig
saiba
pintou
1973
1972
oferta
retirado
pegou
Consum
efficacy
threaten
##ersonal
adaptável
##auros
acceptance
survivor
candle
respeitos
envolvidas
apresentada
Boom
Indus
tabl
taboo
tremenda
fairy
Edin
Edgar
característico
sexuality
reuni
reunimos
isolation
isolada
perigosamente
companheiro
repetidas
voluntari
entusiasma
neurogenesis
sells
microbianas
Angola
nanom
therm
historial
occurs
dramático
folh
folk
ridículo
touched
accounting
startu
releases
aplicado
sanitas
prostitution
prostituição
desenhada
introdução
prevê
acontecesse
instantânea
pilares
punk
excelência
struggles
fracção
leiam
adicionais
libertam
libertado
slee
sofreu
indicators
arrest
branded
Austin
interpreta
safari
infinitamente
graphs
detalhada
Polly
introverts
introvertidos
captain
directa
1949
Esperamos
Iranians
wheat
exceptions
exceptional
saía
abandono
nascidos
addressing
Suíça
Swiss
Switzer
reminder
Essex
Georgetown
Meet
Meyer
Barack
Barón
Barbie
Road
Rook
Royal
cavalos
texture
aceitação
luas
Rembrand
racial
racism
submet
impressionado
Daqui
bored
borbol
hormonal
sorriso
contribuem
cooperar
explosion
characterized
characteristic
Fey
narrativas
narratives
Imediatamente
vizinh
castanho
unconsci
simplistic
afetam
afetados
Abd
aleatório
husbands
dispara
Quantum
clinics
poupam
concordam
Franken
corners
Aconteceu
multiply
petals
exposure
contratos
intensity
opposition
exponencial
Declar
iniciativas
Deviam
valued
sleeping
Kenyan
absorbed
reservas
garantia
reflecting
reflectir
Salman
merging
converter
willingness
1962
jardins
##idimensionais
strike
deslocar
constituição
appearance
sweat
tribais
almof
arquitetos
Nasci
Virgín
melting
propagação
premise
claims
##íssimos
testemunha
testemunhas
enjoyed
strengths
Cynthia
III
McK
Marshall
jeito
armazenar
Levou
heavily
invasive
convidar
convidados
treinados
NATO
vagina
reveals
eliminate
largas
largamente
USC
lesion
displac
colonies
colonial
colonosc
florescer
secreta
exclusive
ocupado
hypoth
transcript
constructive
flutuação
Atlântico
julgava
tocava
residents
commitments
apercebem
Professora
Walker
dolph
##esterol
precioso
plataformas
Tornou
dilema
hiding
installation
blogging
preservar
attracts
Ficou
Ficamos
agrade
leitores
gentil
loudly
rochas
##arregar
executar
espectacular
nuclei
Tunelamento
censura
censors
fragmented
fragmentação
crowds
midst
##ífero
agreement
empurrar
fabulosa
Casabl
bully
##uhuh
abusive
viajei
illustration
espalhou
inimigos
shrimp
shrunk
1912
rasto
vitro
maximizar
flatten
construírem
ilustra
gravitacional
migrat
contradict
escaped
declínio
Jefferson
380
fecho
pioneiros
timeline
chapéu
simultaneamente
simultâneo
comunicamos
courageous
544
Benjam
Cristo
Rosling
Robin
celest
agulhas
elegans
elegante
distúrbio
cinzento
Caroline
ventilação
Knight
Láctea
Sudan
Sudão
Titã
pursuing
enfat
arriscar
recipe
obcecada
degraded
Menos
Melbour
Pediram
hooked
plotted
clustering
filtrar
reconciliação
apreciar
Tentamos
oysters
escravatura
dispersed
preconceito
Slink
Wool
bondade
hunter
conductive
clubes
evaluating
centrifuge
aventuras
storyteller
concretizar
telefonar
introduzidos
lacunas
mastro
tópicos
##ancip
anxious
municipal
##abilitation
irritante
Governments
fortunate
sofisticada
sofisticados
académicos
Burke
Ramón
bambo
igrejas
líquida
sermão
neuroscientists
Perdi
Medicare
acompanhado
Digamos
bossa
dressed
vencedor
##iliated
featured
Aparentemente
Annie
revolucionar
orgulhoso
suspeita
refletir
Raj
faixa
taller
vessel
alemães
slogans
Auguste
núcleos
Betzig
Help
Limor
bumping
reutilizar
tattoo
aborrecido
Karl
iconic
juris
sigmoidal
ticket
anesthes
embry
carpenter
Comparem
distinctive
descontra
sinceramente
criticism
reinventing
negotiations
Cajal
Senegal
cigarro
colectiva
guidance
souberem
ocorrido
utilize
brinquedos
obstacle
incomplete
desperdiçar
neurologist
embarrassed
747
Mahatma
orelhas
índices
sharks
faltam
blessing
património
barril
virtudes
Esquecemo
glorious
shootings
Democracy
crafted
hambúrgueres
Economist
Callum
CMUs
Joseph
Receb
Samuel
UNIC
hunting
pumps
upload
##roturfing
aptidão
conquista
caregivers
hábitos
legitim
legitimate
geometry
miseric
congelado
Dennis
Lucas
Nightingale
Speed
erect
rehabilitation
whisper
elogio
trajectory
bombeiros
supermercados
Ellen
measurement
nanotechnology
solidarity
Astroturfing
BlaBla
TEEB
dyslex
tutorial
initiatives
inseguras
infeciosas
autocon
reproduction
pioneers
Dickens
Sinai
cousin
cousins
pescadores
athlete
abrangente
argued
unequ
obedecer
simplicidade
simplicity
archaeological
etiqueta
suscet
biomolé
biomolec
Philippe
aconselhamento
pixels
russos
vingança
ícone
comandos
humilde
solteira
flaws
ingenuity
desagradáveis
Gallery
dicionário
pulses
zodiac
requisitos
proximidade
shattered
temptation
substitute
Colorado
biofluoresc
cicatrizes
Galileo
Sadly
cibern
vibração
inúmeras
oftalm
manchetes
humildade
##aterials
fortalecer
dinossauros
judaica
masterpiece
intersections
adrenalina
Bruce
Ehud
Hurricane
Herschel
Jacquard
KIPP
Miklos
UCLA
cessar
duty
mochila
tartarug
endeavor
consensus
Gooseberry
Origin
lifestyle
vestígios
Buzzcar
Club
Fujif
Kaplan
Monday
Tribunal
nominate
wavel
##pooling
destructive
autónomo
Behind
summarize
papercutting
Architecture
explicitly
óbvias
arbustos
Dubai
Future
Friedman
Hitler
Kiribati
Mongolia
Nashville
Pennsyl
Yellowstone
cauda
furniture
fenomenal
wonders
ímanes
##elihood
persever
imortalidade
desalination
noturno
orphan
visceral
mushroom
immortality
nightmare
detergente
Republican
SolarCity
megafauna
PowerPoint
helicopter
helicóptero
grocery
accompanied
Beijing
Clooney
Javier
Machine
hosped
pencil
##capes
##MCLU
paraphrase
portugu
carruagem
enthus
espingarda
espessura
Alfred
longitudinal
excedente
Rebecca
garganta
neurocientistas
Laughs
BERT
Buckminst
Celsius
Drucker
Daily
Dylan
Detroit
Dublin
FILMCLU
JAWS
Kahn
Kanzi
Lennon
Mellon
Mullins
Reddit
Sarkozy
Taylor
Urugu
câmera
hósped
##omielite
seventh
aluminum
Thailand
##ocampus
fraldas
##airability
Alaska
maioritariamente
larvae
Oklahoma
Beethoven
Jealousy
Switzerland
Meyerowitz
Rembrandt
Virgínia
Casablanca
Melbourne
UNICEF
BlaBlaCar
Fujifilm
Pennsylvania
Buckminster
FILMCLUB
88
Amo
Abram
Bry
Bake
Bird
Bears
Balin
Bósnia
Ce
CS
Cem
Crow
Cities
Code
Ciências
Citiz
Dam
Dir
Demos
Delh
Down
Dami
EB
Fort
Fica
Fast
Flo
Ficar
Feder
Gru
Greg
Hei
Hundred
IO
Jude
Kad
Lu
Liv
Lum
Land
Living
Liqu
Lady
Mol
Mum
Mind
Mord
Money
Making
NP
Nev
Niger
Oeste
Pi
Py
Pent
Pros
Page
Prat
Passo
Ri
Rom
Rah
Same
Side
Sistem
Scar
Sono
TG
Tum
Tru
Trav
Tele
Tech
Traz
Town
Tenham
Tirei
Usei
Vive
Vais
Wild
Yos
Yout
aura
ba
bón
bala
bake
bows
bitten
binary
cela
coup
citações
cattle
cúb
dita
dren
dude
derem
díg
fê
fond
fãs
gav
gossip
hint
iorqu
jig
jokes
kar
ket
lur
lente
lions
lares
lined
mina
nich
nóm
nativas
naves
oit
pí
pon
pant
pose
pile
pét
picar
pál
petro
póst
ponham
pondo
rum
rage
rés
rays
rolar
ritmos
rituais
raku
sr
sê
sco
silh
ting
tard
tén
uter
upl
vin
vom
ved
vinda
vela
wre
wip
yelling
zip
Últ
ên
ím
útero
##nie
##nóst
##dy
##dalas
##eir
##eza
##ezy
##rin
##rora
##radores
##ressei
##çambique
##oot
##lim
##aj
##afe
##uum
##uah
##top
##iens
##içam
##mit
##micas
##minação
##pace
##cimes
##cale
##coming
##hn
##hist
##hando
##hamente
##hma
##hib
##hots
##houses
##vimento
##vana
##vres
##zinha
##zwe
##yd
##bara
##ji
##jou
##jei
##jord
##áver
##fre
##found
##fase
##fare
##gle
##gica
##gada
##génese
##kas
##xuais
##óf
##íz
##ífica
##íficos
##In
##ST
##Script
##ww
##wind
##16
##osy
thigh
throws
thesis
##enal
##arin
##arde
quin
quilo
envio
envision
##inform
##inating
##incial
##inery
##orf
##oração
##onês
##atre
##atra
##isões
##isha
##otas
##otive
##ouette
##alista
depr
devi
##omod
##ombros
##omagn
##emen
##emite
##itaram
##itary
##itarem
##itled
##itivar
##entimes
##ston
##step
##aduras
##icill
##icity
toalha
queen
##inging
inquis
inquir
##edge
##elve
##idic
##idity
comece
comecemos
andou
##rocr
##utas
##uted
##utivo
##rah
##racha
##imm
##ionistas
pare
parem
paramos
doces
##ivind
esticar
estagn
reis
reagem
rejeição
reusable
##quil
##quím
##aven
asilo
alu
alum
alquim
aloj
alchem
##odiv
weed
##antom
##ulative
##ulhos
aned
eman
oneness
##estra
mug
muitíssimo
##istor
##andade
exos
excis
exotic
##unção
proj
noc
nozz
stere
stun
stole
stead
stairs
stratos
acal
acre
acender
accion
acute
##ifle
soava
espl
atentos
ativa
atómica
##adeza
##izante
##izaram
##izable
##abiliz
porção
porridge
prud
prédios
##cepção
washing
##opot
##opias
chaves
##agging
perfeitos
perpé
##ocation
verões
veríamos
imers
imitação
tren
truce
trilhões
neon
nevo
Sobre
##inhentos
##ects
deson
desat
desac
desceu
desinter
desnecess
##guemos
##uding
##ustent
##ustainable
notor
notação
notavelmente
##ostic
serp
fruits
orf
oradores
veja
shade
lip
arras
arrows
arteries
comparem
compara
elet
elastic
##tua
contentes
cohes
covers
cobra
tern
lobe
loaded
disgu
disruption
disasters
agem
agrav
agitação
residem
##oky
difund
ouçam
##asses
##astro
templ
cargos
carrier
##blings
grim
gritos
gratos
leque
plural
plaster
ama
amate
amadores
amíg
heal
entry
entidades
entendo
entrava
entradas
justify
knit
imposed
mash
mask
mason
##ósitos
receio
recorte
span
sphere
realm
clubs
##berta
feia
fever
manages
managers
mangas
unim
unch
unable
united
unhas
##iph
escasse
escombros
saindo
espar
espanc
##ilhas
yourselves
faca
##ouras
infrar
colme
##ova
ads
adição
##acks
seman
##rosa
##rosso
cried
##ramar
eleito
##ruci
##order
assento
##orno
quererem
incand
incarcer
humane
donating
matam
mature
matérias
teens
mostro
relying
relates
relativa
cera
passando
coro
corros
ideology
##hara
consenso
consolo
##intes
needing
poetic
pension
pensemos
transp
transistor
##appers
destrut
respected
##culpe
qualified
polling
medidores
Separ
encher
anytime
burocr
marinha
marés
marinheiros
##merg
ecológico
indícios
primário
primitive
primórd
precisei
solic
sentam
sentimo
sentimental
overlo
overhead
grandma
boards
Along
##ificamos
##anka
diferem
##urable
##hafi
insert
insecto
instantes
instances
##ergarten
captura
vocabul
informar
blows
persons
persists
##entares
irmos
underp
underway
camisa
camarão
mudá
Comissão
flame
flick
volto
tornava
chamá
chamas
chamámos
guiado
confuse
confuso
confiabilidade
kindness
kindergarten
antic
metais
metaf
metropolit
explicações
devil
devêssemos
centimeter
centímetro
entret
palmas
experientes
experienciar
demografia
viragem
sócio
melhorias
scare
scenes
visually
goodby
fino
finite
distress
planner
planificar
planners
planificação
remotos
patents
patologia
##ishes
futura
Nove
Noise
learners
Stone
protões
protocell
subvers
subúr
writes
computation
ministers
salta
##ínios
autores
energetic
milion
milho
milímetros
##ariais
baseiam
valve
valves
brake
braking
brakes
Univer
Unlike
idoso
##aken
levamos
levados
levava
sistemática
mayor
existam
existential
duche
avesso
##phone
expor
lábios
penicil
repaired
perceptual
estaremos
estaríamos
##tezas
endlessly
reter
retiram
retail
barbar
completed
funcionem
funcionaria
ajude
faís
controla
virão
##weight
malware
outrageous
understandable
defesas
popped
excitação
excruci
pup
condens
condesc
investments
bioch
biografia
biólogo
biológicas
biennial
bienal
especulação
schooling
chegava
chegarem
##enciada
settle
lasts
lasting
resultam
##jeto
engren
founders
negl
negar
erva
drones
clarão
desenrolar
violar
void
morada
morph
digress
##rators
creations
ligou
publica
ambiciosos
##versa
limb
slaves
montagem
decidem
deciding
##althy
moedas
continuamente
continuously
propulsion
Umas
attorn
olhassem
causal
causados
necessitamos
tentarmos
matern
##anges
ensl
calado
obser
praias
praying
##iterate
convite
convicted
empresarial
empresariais
princes
princess
ilim
transformational
handy
juntem
Arran
professionally
controlam
costly
caber
cabana
publicly
triple
contraception
combinações
supostamente
##tenimento
utilities
cheat
cheeks
secondly
viaja
potenci
potências
potato
painter
colocando
skip
skilled
vivíamos
aliens
considerarmos
evolui
customs
pesos
espécimes
tomarmos
Exist
cujas
sounding
sonh
physicians
partilhei
universally
universitária
liberdades
sensing
sensation
sensible
sensitivity
classical
classificações
trabalhámos
mantenham
pontapé
armor
embele
escrevam
eastern
easiest
portos
##ública
obrigar
operado
operational
corremos
urânio
Saber
Sabíamos
massiva
especialidade
##visor
glamor
filmado
picks
aprendermos
imaginá
imaginado
imaginable
achavam
Realmente
Ready
siblings
significativos
normalidade
observei
identidades
##óticas
capacitar
empilh
25th
utilizados
utilizámos
consumidor
##ografias
equipped
organizado
organizados
admin
admitted
absoluto
unthink
sustenta
##radora
auditório
blogues
charming
tendemos
dispor
frontier
legendas
definem
defining
airbag
documentary
hopeful
permitirem
pressões
Desert
Desculpa
Desculpe
vacas
vacant
vacuum
127
Prod
Projeto
machinery
quiséssemos
comportam
transporta
exploradores
##quisite
pays
tirado
tiradas
representing
representative
monogam
matematicamente
confiamos
alterou
trusted
activated
marketplaces
##ópios
preparada
cops
crescemos
fixo
fixa
televis
follows
mercy
corta
cortaram
joint
competentes
competitors
##ilarating
perdão
perdidas
Yorkers
##eterminação
altitude
abriram
waking
inventámos
Olhe
Olhemos
babys
Queen
lutam
optar
predis
predador
predator
procurá
concep
Precisávamos
ruínas
nervosa
1990s
Management
astrof
emergir
tuas
##ennium
automat
automont
automaticamente
Short
apertar
##rodução
dreamed
mentally
calculadora
Beaut
supportive
interactivos
lidamos
adorar
adoraria
ignoradas
Group
Pensam
drain
maravilhas
demonstrado
associação
cafe
caution
caçadores
feeds
sede
invisibilidade
Geiger
doubling
mundane
posting
Colo
ranking
taxes
respondem
prazeres
geek
Deixo
atingimos
temperatures
pathogen
obterem
pacote
14th
banal
similarly
nenhumas
Continua
bolo
bolhas
arquivos
fossils
resisting
expectancy
strongest
specialists
Moçambique
chemists
slowed
Carbon
statistic
estimação
estimular
estimativas
webcam
performers
bottles
Usam
Usámos
Usually
miséria
Spec
semelhança
association
Aquelas
rodeiam
collectively
ballot
mistérios
1986
disposto
float
floors
flooded
magnet
involvement
Egipto
relacionamos
trol
predicts
predictive
puramente
rainha
forestry
Rights
replied
replicar
desaparecido
mathematically
revolutionize
Coisas
gastam
democracies
dropout
descreve
suicidou
destruído
levantei
motivating
architectural
superflu
cheaply
cognitivas
visitei
produzida
produzimos
higiene
revelaram
ganhei
entendam
entendido
victory
ativar
recolhem
aspiring
angaria
terrivelmente
1975
enterrado
oferecida
troubling
retirarem
Escut
pegadas
seriousness
arena
speeds
compreendi
compreendida
Republic
República
renda
adaptable
Whereas
poison
survives
instrumental
delivering
fabricado
frações
espantosos
permanently
permanecem
permaneceu
microscopic
apresentado
Box
Board
Obt
holy
sauditas
tabu
tabelas
wishes
fairness
Conseguir
jogadores
##rafo
reuniram
concentrados
avaliam
isolate
rebentar
rebeld
detector
repetição
determinação
ceder
progression
progressive
Blind
Recently
rota
rotas
rotor
scheme
neurogénese
assustar
assustadora
assustadoras
Frances
distribuída
photographed
Palm
cycl
nanoc
assuming
achieving
vulnerabilidade
vulnerability
ridicular
##meiros
percet
unfinished
aplicamos
aplicadas
Teve
Text
originals
steak
desenhei
Medical
avançando
avançadas
costumes
perfura
perfeição
Security
sintética
libertou
libertada
psicólogo
integrate
quadri
indicates
regulamentos
regulamentação
fiscal
quadrada
contextos
licenças
infinitely
##íbia
conservador
prisoner
sobreviveram
candidat
candidato
Terá
gestos
gestures
hopeless
richest
richness
divididos
harmon
feminista
codes
coded
codificadas
imprudência
lembrarem
harass
monitorização
aceitamos
memoriz
memorizar
administrar
odds
contactar
contacted
usefulness
submit
submarinos
entusiasmada
borracha
coreano
##âneos
explosions
hurricane
estratos
exhilarating
worrying
lawsuit
Imm
arquitecto
castigo
eletrónico
temporarily
infraverm
simplest
simplista
simplificar
inevitáveis
inevitavelmente
Dizemos
disparou
clicker
polarized
Chamaram
reduzidas
reduzindo
dirigi
dirigida
dirigido
raros
inclusion
scanning
concordo
obstáculo
confronto
devastação
Poderão
protesto
juven
aponta
exposto
##uscult
resilin
resilina
escuta
intensamente
intensely
implementado
##ecuted
avoiding
Demas
omn
apanhou
apanhado
intuit
disappears
Didn
Major
apaixonados
obesos
altruísta
garantido
Salv
vascul
vascular
converg
converting
converts
imunidade
obsession
mindset
toughness
strikes
constituem
constituído
broadly
Syrian
cemit
almoços
tecnológicos
tecnológicas
aproveit
aproveitamento
beneficia
confrontados
Brazilian
acompanha
reproduce
interviewed
Greenland
falsas
falsário
falsificação
afirmar
authoritarian
delicadeza
Artes
counterintu
Evans
Jersey
Somali
venture
##otype
composed
gramas
escondida
escondidos
consistente
invasion
invasiva
convidou
Acabou
treinado
pleasures
routes
routinely
vaga
requerem
imperativo
eliminado
eliminating
interpretem
interpretação
Disgust
exceções
excepção
cryptograph
exclusão
exclusivamente
Doesn
adequate
shelters
agarra
resolvê
Keith
Milk
##marks
recompensas
Berlin
Berlim
Mandarin
Walters
vigar
backgrounds
vibrate
perturbações
Moreover
Torna
eldest
titan
##offs
quietly
elephants
máxima
6000
Ficam
enfermeiros
paradise
vegetables
leituras
satisfazer
suspicious
arquitectos
Curt
migrant
instructor
confirmed
dinâmicas
lâminas
rewarded
falharam
Trabalho
Audiência
Turkey
Turquia
desvalor
containers
escalar
idêntico
desconhecidos
diplomats
Denmark
veneno
intersection
inflection
fabuloso
introduction
##rolog
arrepend
minúsculos
illustrates
Direitos
poemas
persistência
prototypes
belonging
acceleration
hydro
mammalian
uncommon
tags
convenient
maximize
##ogramas
scriptures
ilustração
iluminado
culpada
rabisco
rabiscos
tangível
tangíveis
encarar
declared
declining
idiotas
fertilizantes
mobilizar
gigantesco
Budd
Cheers
egoístas
óptica
##burgh
atribuir
coberto
numeracia
Chega
flipped
declarações
adventures
climbing
navigated
contemporâneo
Mountains
éticas
intermédio
insisted
settings
rainfall
roubadas
ventilated
Know
Voltemos
Voltei
eternal
firmly
##holders
apparent
inesperados
desmoron
arriscado
recipiente
poluente
Continuamos
enfermeira
Perguntem
Meninas
Surge
jumping
travagem
escrevendo
Procura
##ográficas
Narração
Tentámos
browsing
##roveitamento
weighed
prometeu
previsível
previsíveis
offspring
admirável
manifestações
Bibliot
bothered
válida
prevenção
Commission
autonomous
soubemos
soubessem
correlacion
psychiatrist
telefonema
Juliá
ciclos
rigorous
tortured
artesanal
1950s
protocolos
morcego
editorial
democráticas
airplanes
fifths
Domingo
sermon
arqueólogos
precau
cristãos
superpower
superpowers
prevalent
Digital
dívidas
monster
depositar
acumular
unpack
espirituais
marítimas
surfaces
revolucionário
dúzias
cadáver
dictate
angari
pegaj
recrutamento
interfere
erradicar
erradicação
portáteis
sanguínea
saibamos
gentleman
Better
Greeks
giraff
queixar
esgotos
coerente
fluctuation
extremos
reverberation
multiplicar
multiplicação
aborrecida
Senhoras
pombo
pilhas
pesticides
appealing
embrulh
impregn
destinado
oppression
Compare
fascínio
summary
cigarette
gangst
megawatts
pormenor
contestar
intencional
insulina
instinctively
registered
minerals
expedição
ambiguidade
ambiguity
incomodar
Denisovans
sábado
tigre
sparked
faltava
blessed
construtor
sólida
patrão
selvagens
quantitative
breakthroughs
Odyssey
Absolutamente
Double
emitir
caregiving
immunity
geometria
miniaturização
miniaturization
Speaking
pitched
riots
tastes
rehears
embalagem
